{
  "version": "1.0",
  "truncation": null,
  "padding": null,
  "added_tokens": [
    {
      "id": 0,
      "special": true,
      "content": "[UNK]",
      "single_word": false,
      "lstrip": false,
      "rstrip": false,
      "normalized": false
    },
    {
      "id": 1,
      "special": true,
      "content": "[CLS]",
      "single_word": false,
      "lstrip": false,
      "rstrip": false,
      "normalized": false
    },
    {
      "id": 2,
      "special": true,
      "content": "[SEP]",
      "single_word": false,
      "lstrip": false,
      "rstrip": false,
      "normalized": false
    },
    {
      "id": 3,
      "special": true,
      "content": "[PAD]",
      "single_word": false,
      "lstrip": false,
      "rstrip": false,
      "normalized": false
    },
    {
      "id": 4,
      "special": true,
      "content": "[MASK]",
      "single_word": false,
      "lstrip": false,
      "rstrip": false,
      "normalized": false
    }
  ],
  "normalizer": null,
  "pre_tokenizer": {
    "type": "Whitespace"
  },
  "post_processor": null,
  "decoder": null,
  "model": {
    "type": "BPE",
    "dropout": null,
    "unk_token": "[UNK]",
    "continuing_subword_prefix": null,
    "end_of_word_suffix": null,
    "fuse_unk": false,
    "vocab": {
      "[UNK]": 0,
      "[CLS]": 1,
      "[SEP]": 2,
      "[PAD]": 3,
      "[MASK]": 4,
      "!": 5,
      "\"": 6,
      "$": 7,
      "%": 8,
      "&": 9,
      "'": 10,
      "(": 11,
      ")": 12,
      "+": 13,
      ",": 14,
      "-": 15,
      ".": 16,
      "/": 17,
      "0": 18,
      "1": 19,
      "2": 20,
      "3": 21,
      "4": 22,
      "5": 23,
      "6": 24,
      "7": 25,
      "8": 26,
      "9": 27,
      ":": 28,
      ";": 29,
      "?": 30,
      "A": 31,
      "B": 32,
      "C": 33,
      "D": 34,
      "E": 35,
      "F": 36,
      "G": 37,
      "H": 38,
      "I": 39,
      "J": 40,
      "K": 41,
      "L": 42,
      "M": 43,
      "N": 44,
      "O": 45,
      "P": 46,
      "Q": 47,
      "R": 48,
      "S": 49,
      "T": 50,
      "U": 51,
      "V": 52,
      "W": 53,
      "X": 54,
      "Y": 55,
      "Z": 56,
      "[": 57,
      "\\": 58,
      "]": 59,
      "a": 60,
      "b": 61,
      "c": 62,
      "d": 63,
      "e": 64,
      "f": 65,
      "g": 66,
      "h": 67,
      "i": 68,
      "j": 69,
      "k": 70,
      "l": 71,
      "m": 72,
      "n": 73,
      "o": 74,
      "p": 75,
      "q": 76,
      "r": 77,
      "s": 78,
      "t": 79,
      "u": 80,
      "v": 81,
      "w": 82,
      "x": 83,
      "y": 84,
      "z": 85,
      "{": 86,
      "}": 87,
      ".\"": 88,
      "u0": 89,
      "u00": 90,
      "u00e": 91,
      "ou": 92,
      "re": 93,
      "[\"": 94,
      "],": 95,
      ".\":": 96,
      "ai": 97,
      ".\"],": 98,
      "es": 99,
      "en": 100,
      "on": 101,
      "u00e9": 102,
      "er": 103,
      "an": 104,
      "is": 105,
      "in": 106,
      "le": 107,
      "th": 108,
      "as": 109,
      "om": 110,
      "de": 111,
      "qu": 112,
      "at": 113,
      "ne": 114,
      "?\"": 115,
      "ar": 116,
      "ous": 117,
      "te": 118,
      "to": 119,
      ".\",": 120,
      "ve": 121,
      "que": 122,
      "se": 123,
      "he": 124,
      "ent": 125,
      "Je": 126,
      "me": 127,
      "ce": 128,
      "Tom": 129,
      "or": 130,
      "it": 131,
      "pas": 132,
      "est": 133,
      "ais": 134,
      "ll": 135,
      "our": 136,
      "la": 137,
      "ch": 138,
      "the": 139,
      "au": 140,
      "u00e0": 141,
      "ing": 142,
      "tr": 143,
      "un": 144,
      "you": 145,
      "vous": 146,
      "il": 147,
      "oi": 148,
      "su": 149,
      "ait": 150,
      "tu": 151,
      "pr": 152,
      "us": 153,
      "ie": 154,
      "?\":": 155,
      "?\"],": 156,
      "u00e8": 157,
      "et": 158,
      "av": 159,
      "ant": 160,
      "ave": 161,
      "no": 162,
      "Il": 163,
      "pe": 164,
      "li": 165,
      "be": 166,
      "di": 167,
      "ion": 168,
      "ment": 169,
      "do": 170,
      "al": 171,
      "ux": 172,
      "ri": 173,
      "st": 174,
      "ver": 175,
      "of": 176,
      "ay": 177,
      "lle": 178,
      "par": 179,
      "u00e9t": 180,
      "?\",": 181,
      "out": 182,
      "ren": 183,
      "u00eat": 184,
      "am": 185,
      "all": 186,
      "une": 187,
      "je": 188,
      "ke": 189,
      "con": 190,
      "ci": 191,
      "ap": 192,
      "ur": 193,
      "son": 194,
      "pl": 195,
      "com": 196,
      "si": 197,
      "and": 198,
      "ag": 199,
      "ab": 200,
      "ti": 201,
      "ain": 202,
      "ac": 203,
      "that": 204,
      "res": 205,
      "pour": 206,
      "les": 207,
      "for": 208,
      "The": 209,
      "go": 210,
      "hat": 211,
      "ld": 212,
      "ut": 213,
      "lo": 214,
      "tre": 215,
      "aire": 216,
      "pen": 217,
      "ans": 218,
      "du": 219,
      "was": 220,
      "mp": 221,
      "we": 222,
      "'\\": 223,
      "ro": 224,
      "don": 225,
      "suis": 226,
      "u00f": 227,
      "po": 228,
      "u00e7": 229,
      "ter": 230,
      "ons": 231,
      "ad": 232,
      "He": 233,
      "ir": 234,
      "vo": 235,
      "wi": 236,
      "gh": 237,
      "u00e9e": 238,
      "mon": 239,
      "ien": 240,
      "oir": 241,
      "faire": 242,
      "ho": 243,
      "so": 244,
      "are": 245,
      "co": 246,
      "des": 247,
      "ue": 248,
      "have": 249,
      "mo": 250,
      "ang": 251,
      "u00e8re": 252,
      "his": 253,
      "Nous": 254,
      "pro": 255,
      "!\"": 256,
      "ed": 257,
      "cou": 258,
      "now": 259,
      "nous": 260,
      "Tu": 261,
      "ten": 262,
      "hi": 263,
      "ui": 264,
      "fe": 265,
      "We": 266,
      "ure": 267,
      "mes": 268,
      "fr": 269,
      "my": 270,
      "ma": 271,
      "this": 272,
      "Vous": 273,
      "ser": 274,
      "dans": 275,
      "can": 276,
      "ght": 277,
      "der": 278,
      "You": 279,
      "per": 280,
      "one": 281,
      "ex": 282,
      "plus": 283,
      "che": 284,
      "qui": 285,
      "vr": 286,
      "fait": 287,
      "dre": 288,
      "som": 289,
      "u00e7a": 290,
      "jour": 291,
      "Elle": 292,
      "fi": 293,
      "your": 294,
      "moi": 295,
      "u00e8s": 296,
      "cho": 297,
      "It": 298,
      "bo": 299,
      "very": 300,
      "Mar": 301,
      "not": 302,
      "thing": 303,
      "ly": 304,
      "know": 305,
      "veux": 306,
      "u00eatre": 307,
      "want": 308,
      "sur": 309,
      "tout": 310,
      "with": 311,
      "ould": 312,
      "like": 313,
      "u00e9tait": 314,
      "any": 315,
      "quoi": 316,
      "ble": 317,
      "ven": 318,
      "vi": 319,
      "did": 320,
      "ther": 321,
      "ille": 322,
      "ok": 323,
      "u00c": 324,
      "ta": 325,
      "avec": 326,
      "here": 327,
      "quel": 328,
      "ink": 329,
      "She": 330,
      "ard": 331,
      "u00e9s": 332,
      "ul": 333,
      "temp": 334,
      "Ce": 335,
      "dit": 336,
      "ni": 337,
      "ation": 338,
      "sais": 339,
      "day": 340,
      "ort": 341,
      "fo": 342,
      "Le": 343,
      "Mary": 344,
      "sa": 345,
      "ont": 346,
      "iez": 347,
      "ig": 348,
      "dis": 349,
      "ouv": 350,
      "bl": 351,
      "op": 352,
      "temps": 353,
      "bien": 354,
      "jus": 355,
      "u00e9c": 356,
      "sont": 357,
      "wor": 358,
      "age": 359,
      "able": 360,
      "up": 361,
      "ds": 362,
      "ses": 363,
      "lles": 364,
      "u00eates": 365,
      "ong": 366,
      "think": 367,
      "ted": 368,
      "mer": 369,
      "tte": 370,
      "gr": 371,
      "mais": 372,
      "dr": 373,
      "man": 374,
      "ate": 375,
      "ici": 376,
      "Que": 377,
      "pren": 378,
      "what": 379,
      "Com": 380,
      "toi": 381,
      "ame": 382,
      "pla": 383,
      "ouve": 384,
      "ill": 385,
      "u00e9r": 386,
      "ts": 387,
      "use": 388,
      "pense": 389,
      "get": 390,
      "main": 391,
      "!\",": 392,
      "avez": 393,
      "vou": 394,
      "lui": 395,
      "La": 396,
      "What": 397,
      "Ne": 398,
      "rien": 399,
      "Pour": 400,
      "uis": 401,
      "ess": 402,
      "sh": 403,
      "ions": 404,
      "bre": 405,
      "him": 406,
      "od": 407,
      "min": 408,
      "vrai": 409,
      "pi": 410,
      "ct": 411,
      "br": 412,
      "mar": 413,
      "some": 414,
      "mi": 415,
      "aut": 416,
      "tou": 417,
      "ow": 418,
      "avoir": 419,
      "time": 420,
      "arri": 421,
      "u00f4": 422,
      "peux": 423,
      "This": 424,
      "votre": 425,
      "trav": 426,
      "cr": 427,
      "coup": 428,
      "fin": 429,
      "ck": 430,
      "u00e9p": 431,
      "!\"],": 432,
      "Les": 433,
      "That": 434,
      "bon": 435,
      "chose": 436,
      "Do": 437,
      "jam": 438,
      "ye": 439,
      "cette": 440,
      "has": 441,
      "pris": 442,
      "ge": 443,
      "cher": 444,
      "ler": 445,
      "air": 446,
      "ton": 447,
      "beau": 448,
      "ner": 449,
      "[\"\\": 450,
      "u00f9": 451,
      "No": 452,
      "ance": 453,
      "about": 454,
      "way": 455,
      "lais": 456,
      "her": 457,
      "jamais": 458,
      "mis": 459,
      "ally": 460,
      "dire": 461,
      "travai": 462,
      "voir": 463,
      "Ils": 464,
      "oin": 465,
      "ens": 466,
      "avons": 467,
      "rais": 468,
      "vie": 469,
      "sem": 470,
      "hom": 471,
      "pos": 472,
      "imp": 473,
      "int": 474,
      "ine": 475,
      "had": 476,
      "part": 477,
      "af": 478,
      "pre": 479,
      "jours": 480,
      "fer": 481,
      "Pourquoi": 482,
      "cela": 483,
      "long": 484,
      "vraiment": 485,
      "didn": 486,
      "going": 487,
      "bes": 488,
      "em": 489,
      "ple": 490,
      "dent": 491,
      "rest": 492,
      "will": 493,
      "aller": 494,
      "ase": 495,
      "sez": 496,
      "Qu": 497,
      "elle": 498,
      "need": 499,
      "aime": 500,
      "u00eate": 501,
      "heure": 502,
      "orte": 503,
      "sonne": 504,
      "hy": 505,
      "anger": 506,
      "car": 507,
      "tes": 508,
      "gar": 509,
      "quelque": 510,
      "besoin": 511,
      "They": 512,
      "train": 513,
      "devr": 514,
      "im": 515,
      "vais": 516,
      "gent": 517,
      "work": 518,
      "\"\\": 519,
      "ors": 520,
      "ces": 521,
      "dif": 522,
      "How": 523,
      "las": 524,
      "ked": 525,
      "should": 526,
      "Don": 527,
      "cer": 528,
      "id": 529,
      "were": 530,
      "vre": 531,
      "Est": 532,
      "fa": 533,
      "uit": 534,
      "beaucoup": 535,
      "good": 536,
      "ied": 537,
      "ob": 538,
      "My": 539,
      "u00e9es": 540,
      "sou": 541,
      "u00e2": 542,
      "men": 543,
      "dy": 544,
      "peu": 545,
      "aid": 546,
      "va": 547,
      "cour": 548,
      "aux": 549,
      "ache": 550,
      "ange": 551,
      "hap": 552,
      "tous": 553,
      "avais": 554,
      "On": 555,
      "vis": 556,
      "just": 557,
      "hen": 558,
      "sommes": 559,
      "rent": 560,
      "hel": 561,
      "ry": 562,
      "ress": 563,
      "lement": 564,
      "comp": 565,
      "lu": 566,
      "got": 567,
      "every": 568,
      "more": 569,
      "parler": 570,
      "aus": 571,
      "prendre": 572,
      "iture": 573,
      "ol": 574,
      "from": 575,
      "does": 576,
      "20": 577,
      "if": 578,
      "ak": 579,
      "avait": 580,
      "19": 581,
      "alk": 582,
      "u00e9tais": 583,
      "vez": 584,
      "Comment": 585,
      "by": 586,
      "u00c7": 587,
      "u00f4t": 588,
      "u00c7a": 589,
      "el": 590,
      "red": 591,
      "ils": 592,
      "would": 593,
      "appe": 594,
      "ought": 595,
      "cc": 596,
      "stu": 597,
      "end": 598,
      "peut": 599,
      "conn": 600,
      "but": 601,
      "mand": 602,
      "tir": 603,
      "u00fb": 604,
      "maison": 605,
      "bu": 606,
      "let": 607,
      "see": 608,
      "u00eame": 609,
      "aine": 610,
      "ants": 611,
      "could": 612,
      "ret": 613,
      "read": 614,
      "port": 615,
      "There": 616,
      "mus": 617,
      "trop": 618,
      "avant": 619,
      "ers": 620,
      "toujours": 621,
      "new": 622,
      "there": 623,
      "mat": 624,
      "eu": 625,
      "ive": 626,
      "come": 627,
      "bi": 628,
      "look": 629,
      "core": 630,
      "really": 631,
      "u00e9l": 632,
      "leur": 633,
      "lit": 634,
      "ep": 635,
      "tom": 636,
      "lez": 637,
      "tell": 638,
      "ack": 639,
      "help": 640,
      "u20": 641,
      "Mon": 642,
      "quest": 643,
      "pa": 644,
      "enf": 645,
      "how": 646,
      "encore": 647,
      "deux": 648,
      "sto": 649,
      "u2019": 650,
      "spe": 651,
      "monde": 652,
      "say": 653,
      "mu": 654,
      "comme": 655,
      "take": 656,
      "fois": 657,
      "u00eet": 658,
      "argent": 659,
      "atten": 660,
      "pouv": 661,
      "nouve": 662,
      "ins": 663,
      "ris": 664,
      "fran": 665,
      "been": 666,
      "ite": 667,
      "ieux": 668,
      "Bo": 669,
      "ish": 670,
      "than": 671,
      "ass": 672,
      "aimer": 673,
      "row": 674,
      "Tout": 675,
      "cor": 676,
      "never": 677,
      "lot": 678,
      "enten": 679,
      "bus": 680,
      "fais": 681,
      "ois": 682,
      "As": 683,
      "quelqu": 684,
      "aient": 685,
      "u00e7ais": 686,
      "ach": 687,
      "mal": 688,
      "pass": 689,
      "Quel": 690,
      "oun": 691,
      "sol": 692,
      "gu": 693,
      "vu": 694,
      "autre": 695,
      "demand": 696,
      "ree": 697,
      "sel": 698,
      "dois": 699,
      "faut": 700,
      "vien": 701,
      "ey": 702,
      "jou": 703,
      "tent": 704,
      "too": 705,
      "ston": 706,
      "arr": 707,
      "pu": 708,
      "ic": 709,
      "Boston": 710,
      "voiture": 711,
      "Is": 712,
      "much": 713,
      "Why": 714,
      "ra": 715,
      "Let": 716,
      "Elles": 717,
      "soit": 718,
      "lie": 719,
      "eat": 720,
      "um": 721,
      "cle": 722,
      "won": 723,
      "occ": 724,
      "ction": 725,
      "hui": 726,
      "aider": 727,
      "puis": 728,
      "sent": 729,
      "pet": 730,
      "chez": 731,
      "home": 732,
      "arrive": 733,
      "rer": 734,
      "aimerais": 735,
      "ty": 736,
      "cro": 737,
      "ded": 738,
      "jourd": 739,
      "tenant": 740,
      "frien": 741,
      "porte": 742,
      "venir": 743,
      "Can": 744,
      "pay": 745,
      "travail": 746,
      "ber": 747,
      "book": 748,
      "semble": 749,
      "nom": 750,
      "ves": 751,
      "En": 752,
      "u00e8me": 753,
      "body": 754,
      "aussi": 755,
      "something": 756,
      "talk": 757,
      "itu": 758,
      "who": 759,
      "ars": 760,
      "Ch": 761,
      "ise": 762,
      "15": 763,
      "ante": 764,
      "aur": 765,
      "Qui": 766,
      "off": 767,
      "probl": 768,
      "sup": 769,
      "right": 770,
      "back": 771,
      "juste": 772,
      "met": 773,
      "aujourd": 774,
      "ouvez": 775,
      "sed": 776,
      "rench": 777,
      "wn": 778,
      "ild": 779,
      "ouver": 780,
      "plan": 781,
      "u015": 782,
      "derni": 783,
      "u0153": 784,
      "French": 785,
      "ca": 786,
      "ople": 787,
      "diffi": 788,
      "other": 789,
      "personne": 790,
      "doesn": 791,
      "maintenant": 792,
      "Are": 793,
      "ting": 794,
      "u00e9j": 795,
      "Si": 796,
      "grand": 797,
      "ette": 798,
      "money": 799,
      "fam": 800,
      "when": 801,
      "ning": 802,
      "ouse": 803,
      "self": 804,
      "hab": 805,
      "esp": 806,
      "u00e9f": 807,
      "u00e9g": 808,
      "essay": 809,
      "make": 810,
      "pri": 811,
      "happen": 812,
      "wat": 813,
      "pensais": 814,
      "ide": 815,
      "hier": 816,
      "ceci": 817,
      "ence": 818,
      "contr": 819,
      "last": 820,
      "tement": 821,
      "u00e9tu": 822,
      "ique": 823,
      "fai": 824,
      "she": 825,
      "bet": 826,
      "vit": 827,
      "ates": 828,
      "connais": 829,
      "try": 830,
      "fu": 831,
      "sp": 832,
      "rents": 833,
      "isn": 834,
      "Marie": 835,
      "ound": 836,
      "seu": 837,
      "u00e9ci": 838,
      "Avez": 839,
      "cau": 840,
      "Per": 841,
      "commen": 842,
      "under": 843,
      "seul": 844,
      "eux": 845,
      "bli": 846,
      "tle": 847,
      "u00ebl": 848,
      "oire": 849,
      "anything": 850,
      "prom": 851,
      "pres": 852,
      "thought": 853,
      "feel": 854,
      "pt": 855,
      "people": 856,
      "sor": 857,
      "assez": 858,
      "fore": 859,
      "mom": 860,
      "play": 861,
      "voul": 862,
      "dev": 863,
      "u00c0": 864,
      "livre": 865,
      "urs": 866,
      "ind": 867,
      "u00e9co": 868,
      "pend": 869,
      "parents": 870,
      "vers": 871,
      "ful": 872,
      "rou": 873,
      "speak": 874,
      "jet": 875,
      "cile": 876,
      "chien": 877,
      "cl": 878,
      "told": 879,
      "clo": 880,
      "hone": 881,
      "old": 882,
      "room": 883,
      "bonne": 884,
      "ures": 885,
      "love": 886,
      "cul": 887,
      "quand": 888,
      "ek": 889,
      "said": 890,
      "question": 891,
      "soir": 892,
      "mieux": 893,
      "trois": 894,
      "simp": 895,
      "house": 896,
      "moment": 897,
      "demain": 898,
      "nes": 899,
      "vent": 900,
      "wo": 901,
      "ways": 902,
      "ese": 903,
      "Personne": 904,
      "Who": 905,
      "cent": 906,
      "made": 907,
      "yez": 908,
      "cat": 909,
      "apr": 910,
      "week": 911,
      "mor": 912,
      "over": 913,
      "lis": 914,
      "today": 915,
      "Combien": 916,
      "sait": 917,
      "venu": 918,
      "again": 919,
      "sans": 920,
      "manger": 921,
      "stand": 922,
      "ire": 923,
      "tor": 924,
      "bro": 925,
      "ff": 926,
      "wr": 927,
      "always": 928,
      "enfants": 929,
      "trouv": 930,
      "sible": 931,
      "cert": 932,
      "went": 933,
      "Un": 934,
      "kes": 935,
      "where": 936,
      "reg": 937,
      "Es": 938,
      "table": 939,
      "cont": 940,
      "still": 941,
      "Did": 942,
      "u00e9cole": 943,
      "Where": 944,
      "eau": 945,
      "u00cates": 946,
      "cus": 947,
      "care": 948,
      "devrais": 949,
      "must": 950,
      "import": 951,
      "ann": 952,
      "act": 953,
      "str": 954,
      "sure": 955,
      "cal": 956,
      "stay": 957,
      "tur": 958,
      "Cette": 959,
      "mas": 960,
      "bou": 961,
      "ez": 962,
      "orrow": 963,
      "fas": 964,
      "gens": 965,
      "child": 966,
      "toutes": 967,
      "many": 968,
      "ign": 969,
      "sho": 970,
      "Ple": 971,
      "savoir": 972,
      "only": 973,
      "erre": 974,
      "u00e9tudi": 975,
      "better": 976,
      "Ma": 977,
      "voy": 978,
      "ier": 979,
      "entre": 980,
      "live": 981,
      "tez": 982,
      "poli": 983,
      "occup": 984,
      "cre": 985,
      "dou": 986,
      "place": 987,
      "Please": 988,
      "ready": 989,
      "arriv": 990,
      "down": 991,
      "If": 992,
      "u00e9ch": 993,
      "they": 994,
      "partir": 995,
      "Every": 996,
      "De": 997,
      "proble": 998,
      "problem": 999,
      "u00e9sol": 1000,
      "person": 1001,
      "chool": 1002,
      "souv": 1003,
      "bles": 1004,
      "ft": 1005,
      "aide": 1006,
      "\\\"": 1007,
      "journ": 1008,
      "u00e9pon": 1009,
      "auc": 1010,
      "ture": 1011,
      "cha": 1012,
      "night": 1013,
      "king": 1014,
      "nuit": 1015,
      "heures": 1016,
      "toute": 1017,
      "put": 1018,
      "parti": 1019,
      "art": 1020,
      "ami": 1021,
      "doing": 1022,
      "father": 1023,
      "before": 1024,
      "three": 1025,
      "cin": 1026,
      "led": 1027,
      "belie": 1028,
      "nez": 1029,
      "job": 1030,
      "petit": 1031,
      "pourr": 1032,
      "little": 1033,
      "school": 1034,
      "!\":": 1035,
      "Cela": 1036,
      "choses": 1037,
      "ever": 1038,
      "aurais": 1039,
      "tra": 1040,
      "Chris": 1041,
      "cu": 1042,
      "notre": 1043,
      "u00e9ri": 1044,
      "homme": 1045,
      "comment": 1046,
      "sens": 1047,
      "dog": 1048,
      "fut": 1049,
      "travaill": 1050,
      "u00e9tr": 1051,
      "Christ": 1052,
      "Christmas": 1053,
      "ager": 1054,
      "chance": 1055,
      "ense": 1056,
      "well": 1057,
      "ned": 1058,
      "voulais": 1059,
      "rester": 1060,
      "ity": 1061,
      "u00fbr": 1062,
      "quelle": 1063,
      "ester": 1064,
      "col": 1065,
      "hav": 1066,
      "quelques": 1067,
      "left": 1068,
      "anted": 1069,
      "appr": 1070,
      "trer": 1071,
      "u00e9n": 1072,
      "py": 1073,
      "cham": 1074,
      "after": 1075,
      "vos": 1076,
      "surpris": 1077,
      "donn": 1078,
      "pose": 1079,
      "give": 1080,
      "cident": 1081,
      "Jap": 1082,
      "ear": 1083,
      "used": 1084,
      "rez": 1085,
      "tru": 1086,
      "jeun": 1087,
      "tomorrow": 1088,
      "point": 1089,
      "buy": 1090,
      "simplement": 1091,
      "them": 1092,
      "llement": 1093,
      "ros": 1094,
      "heureux": 1095,
      "ot": 1096,
      "wanted": 1097,
      "Th": 1098,
      "hard": 1099,
      "ough": 1100,
      "exp": 1101,
      "leep": 1102,
      "dez": 1103,
      "fem": 1104,
      "vol": 1105,
      "wait": 1106,
      "pouvez": 1107,
      "elles": 1108,
      "ped": 1109,
      "ord": 1110,
      "friend": 1111,
      "believe": 1112,
      "Puis": 1113,
      "cause": 1114,
      "hed": 1115,
      "prof": 1116,
      "pourquoi": 1117,
      "fir": 1118,
      "peur": 1119,
      "fat": 1120,
      "into": 1121,
      "pho": 1122,
      "os": 1123,
      "done": 1124,
      "pens": 1125,
      "two": 1126,
      "accident": 1127,
      "lors": 1128,
      "raison": 1129,
      "hand": 1130,
      "Quand": 1131,
      "entendu": 1132,
      "cap": 1133,
      "fort": 1134,
      "trouver": 1135,
      "veut": 1136,
      "esterday": 1137,
      "came": 1138,
      "hon": 1139,
      "ments": 1140,
      "understand": 1141,
      "leave": 1142,
      "photo": 1143,
      "late": 1144,
      "nouveau": 1145,
      "ado": 1146,
      "most": 1147,
      "Re": 1148,
      "amis": 1149,
      "wer": 1150,
      "win": 1151,
      "ary": 1152,
      "acher": 1153,
      "gg": 1154,
      "mau": 1155,
      "aise": 1156,
      "All": 1157,
      "whi": 1158,
      "asked": 1159,
      "condu": 1160,
      "prends": 1161,
      "pat": 1162,
      "gn": 1163,
      "prob": 1164,
      "gre": 1165,
      "xt": 1166,
      "teur": 1167,
      "oy": 1168,
      "tri": 1169,
      "bb": 1170,
      "u00c9": 1171,
      "Lais": 1172,
      "u0153ur": 1173,
      "ank": 1174,
      "find": 1175,
      "u00e9rit": 1176,
      "Have": 1177,
      "cut": 1178,
      "fille": 1179,
      "Quelle": 1180,
      "u00e7on": 1181,
      "police": 1182,
      "When": 1183,
      "achet": 1184,
      "happy": 1185,
      "difficile": 1186,
      "sing": 1187,
      "asse": 1188,
      "proch": 1189,
      "ving": 1190,
      "yesterday": 1191,
      "mem": 1192,
      "ques": 1193,
      "-\\": 1194,
      "lt": 1195,
      "app": 1196,
      "cet": 1197,
      "gag": 1198,
      "non": 1199,
      "ande": 1200,
      "meille": 1201,
      "bed": 1202,
      "pain": 1203,
      "ail": 1204,
      "mande": 1205,
      "semaine": 1206,
      "meet": 1207,
      "matin": 1208,
      "parle": 1209,
      "voulez": 1210,
      "call": 1211,
      "savais": 1212,
      "dor": 1213,
      "dur": 1214,
      "u00een": 1215,
      "seule": 1216,
      "ask": 1217,
      "rendre": 1218,
      "u00ab": 1219,
      "u00bb": 1220,
      "attent": 1221,
      "igu": 1222,
      "premi": 1223,
      "ats": 1224,
      "important": 1225,
      "croire": 1226,
      "next": 1227,
      "enough": 1228,
      "hope": 1229,
      "drink": 1230,
      "viens": 1231,
      "ger": 1232,
      "produ": 1233,
      "ef": 1234,
      "conse": 1235,
      "rap": 1236,
      "pendant": 1237,
      "u00e9jeun": 1238,
      "ight": 1239,
      "u00e8rent": 1240,
      "mari": 1241,
      "everything": 1242,
      "emp": 1243,
      "roit": 1244,
      "cord": 1245,
      "questions": 1246,
      "wasn": 1247,
      "depuis": 1248,
      "stop": 1249,
      "acheter": 1250,
      "parl": 1251,
      "souvent": 1252,
      "gen": 1253,
      "mother": 1254,
      "sera": 1255,
      "nothing": 1256,
      "mag": 1257,
      "quit": 1258,
      "ru": 1259,
      "mort": 1260,
      "ition": 1261,
      "perdu": 1262,
      "friends": 1263,
      "lang": 1264,
      "rire": 1265,
      "fatigu": 1266,
      "fon": 1267,
      "lic": 1268,
      "dra": 1269,
      "femme": 1270,
      "esse": 1271,
      "change": 1272,
      "saw": 1273,
      "Som": 1274,
      "Vou": 1275,
      "clas": 1276,
      "utes": 1277,
      "regar": 1278,
      "u00e9di": 1279,
      "rain": 1280,
      "ist": 1281,
      "door": 1282,
      "longtemps": 1283,
      "chambre": 1284,
      "irl": 1285,
      "ze": 1286,
      "away": 1287,
      "sleep": 1288,
      "seem": 1289,
      "vois": 1290,
      "jusqu": 1291,
      "crois": 1292,
      "passe": 1293,
      "mit": 1294,
      "arm": 1295,
      "minutes": 1296,
      "mettre": 1297,
      "mir": 1298,
      "u00eater": 1299,
      "please": 1300,
      "bad": 1301,
      "why": 1302,
      "coun": 1303,
      "years": 1304,
      "things": 1305,
      "este": 1306,
      "form": 1307,
      "hur": 1308,
      "took": 1309,
      "children": 1310,
      "quer": 1311,
      "ations": 1312,
      "ried": 1313,
      "empl": 1314,
      "fil": 1315,
      "tard": 1316,
      "cri": 1317,
      "ily": 1318,
      "oubli": 1319,
      "soon": 1320,
      "ball": 1321,
      "hu": 1322,
      "drais": 1323,
      "His": 1324,
      "orter": 1325,
      "wrong": 1326,
      "donner": 1327,
      "girl": 1328,
      "ister": 1329,
      "already": 1330,
      "accord": 1331,
      "lun": 1332,
      "their": 1333,
      "u00e8res": 1334,
      "bat": 1335,
      "teau": 1336,
      "miss": 1337,
      "happened": 1338,
      "morning": 1339,
      "first": 1340,
      "life": 1341,
      "lat": 1342,
      "inte": 1343,
      "prie": 1344,
      "retard": 1345,
      "igno": 1346,
      "u00e9jeuner": 1347,
      "ath": 1348,
      "gave": 1349,
      "aim": 1350,
      "moins": 1351,
      "kind": 1352,
      "open": 1353,
      "possible": 1354,
      "aie": 1355,
      "inter": 1356,
      "plain": 1357,
      "gros": 1358,
      "u00e9taient": 1359,
      "leurs": 1360,
      "nombre": 1361,
      "tel": 1362,
      "devons": 1363,
      "die": 1364,
      "watch": 1365,
      "u00e9ress": 1366,
      "pourrait": 1367,
      "Aus": 1368,
      "eas": 1369,
      "gl": 1370,
      "hear": 1371,
      "vient": 1372,
      "days": 1373,
      "side": 1374,
      "idea": 1375,
      "caf": 1376,
      "iste": 1377,
      "lear": 1378,
      "cy": 1379,
      "mang": 1380,
      "often": 1381,
      "Ar": 1382,
      "sat": 1383,
      "u00e8ce": 1384,
      "chang": 1385,
      "passer": 1386,
      "ref": 1387,
      "illez": 1388,
      "cam": 1389,
      "even": 1390,
      "name": 1391,
      "u00e9rie": 1392,
      "ale": 1393,
      "uses": 1394,
      "same": 1395,
      "ches": 1396,
      "sal": 1397,
      "water": 1398,
      "dri": 1399,
      "knew": 1400,
      "walk": 1401,
      "u00ee": 1402,
      "star": 1403,
      "propos": 1404,
      "contin": 1405,
      "In": 1406,
      "util": 1407,
      "pic": 1408,
      "jouer": 1409,
      "big": 1410,
      "gi": 1411,
      "demande": 1412,
      "lost": 1413,
      "travailler": 1414,
      "may": 1415,
      "lire": 1416,
      "sk": 1417,
      "ince": 1418,
      "Au": 1419,
      "sec": 1420,
      "exam": 1421,
      "acce": 1422,
      "best": 1423,
      "sy": 1424,
      "conv": 1425,
      "iens": 1426,
      "rit": 1427,
      "Par": 1428,
      "doc": 1429,
      "mala": 1430,
      "boy": 1431,
      "diff": 1432,
      "sujet": 1433,
      "aper": 1434,
      "termin": 1435,
      "yet": 1436,
      "heard": 1437,
      "u00e9phone": 1438,
      "found": 1439,
      "sau": 1440,
      "year": 1441,
      "without": 1442,
      "vres": 1443,
      "ital": 1444,
      "dont": 1445,
      "sortir": 1446,
      "bit": 1447,
      "ville": 1448,
      "erci": 1449,
      "sons": 1450,
      "difficul": 1451,
      "alone": 1452,
      "looking": 1453,
      "doit": 1454,
      "az": 1455,
      "faites": 1456,
      "pouvons": 1457,
      "Some": 1458,
      "ets": 1459,
      "confi": 1460,
      "sois": 1461,
      "bought": 1462,
      "chant": 1463,
      "val": 1464,
      "keep": 1465,
      "autres": 1466,
      "famille": 1467,
      "rom": 1468,
      "chau": 1469,
      "oix": 1470,
      "stupi": 1471,
      "Une": 1472,
      "ages": 1473,
      "arriver": 1474,
      "anyone": 1475,
      "nouvelle": 1476,
      "fun": 1477,
      "lig": 1478,
      "rencontr": 1479,
      "couldn": 1480,
      "member": 1481,
      "sous": 1482,
      "bla": 1483,
      "wish": 1484,
      "wed": 1485,
      "ated": 1486,
      "mind": 1487,
      "retour": 1488,
      "attendre": 1489,
      "rappe": 1490,
      "tour": 1491,
      "study": 1492,
      "cas": 1493,
      "hor": 1494,
      "nu": 1495,
      "ente": 1496,
      "cours": 1497,
      "Would": 1498,
      "cons": 1499,
      "enfant": 1500,
      "haven": 1501,
      "nour": 1502,
      "habitu": 1503,
      "adore": 1504,
      "attention": 1505,
      "bor": 1506,
      "inst": 1507,
      "light": 1508,
      "cold": 1509,
      "toire": 1510,
      "presque": 1511,
      "regard": 1512,
      "plu": 1513,
      "gare": 1514,
      "yeux": 1515,
      "ient": 1516,
      "num": 1517,
      "oid": 1518,
      "afr": 1519,
      "afraid": 1520,
      "avantage": 1521,
      "ake": 1522,
      "trouve": 1523,
      "sus": 1524,
      "alement": 1525,
      "sit": 1526,
      "ust": 1527,
      "wim": 1528,
      "serai": 1529,
      "Pen": 1530,
      "bure": 1531,
      "being": 1532,
      "jeune": 1533,
      "Pe": 1534,
      "phone": 1535,
      "nat": 1536,
      "devriez": 1537,
      "bas": 1538,
      "beg": 1539,
      "heureuse": 1540,
      "looks": 1541,
      "brother": 1542,
      "hour": 1543,
      "ies": 1544,
      "ju": 1545,
      "ose": 1546,
      "bureau": 1547,
      "May": 1548,
      "Your": 1549,
      "lar": 1550,
      "sui": 1551,
      "anglais": 1552,
      "Japan": 1553,
      "run": 1554,
      "situ": 1555,
      "mil": 1556,
      "invit": 1557,
      "u00e9tiez": 1558,
      "partie": 1559,
      "busy": 1560,
      "petite": 1561,
      "certain": 1562,
      "mauvais": 1563,
      "vite": 1564,
      "attend": 1565,
      "cuis": 1566,
      "contre": 1567,
      "swim": 1568,
      "iser": 1569,
      "ved": 1570,
      "entendre": 1571,
      "seen": 1572,
      "laiss": 1573,
      "imag": 1574,
      "wonder": 1575,
      "essayer": 1576,
      "lettre": 1577,
      "aucune": 1578,
      "hors": 1579,
      "youn": 1580,
      "Pouvez": 1581,
      "devoir": 1582,
      "grande": 1583,
      "great": 1584,
      "sant": 1585,
      "u00e9sent": 1586,
      "fast": 1587,
      "danger": 1588,
      "vas": 1589,
      "resp": 1590,
      "wants": 1591,
      "else": 1592,
      "fau": 1593,
      "low": 1594,
      "few": 1595,
      "Arr": 1596,
      "Vo": 1597,
      "davantage": 1598,
      "vac": 1599,
      "u00e9ro": 1600,
      "combien": 1601,
      "answer": 1602,
      "feu": 1603,
      "ished": 1604,
      "these": 1605,
      "true": 1606,
      "devez": 1607,
      "tired": 1608,
      "voulait": 1609,
      "remember": 1610,
      "film": 1611,
      "difficult": 1612,
      "Engl": 1613,
      "dents": 1614,
      "Peux": 1615,
      "chat": 1616,
      "doll": 1617,
      "knows": 1618,
      "probable": 1619,
      "Ai": 1620,
      "serait": 1621,
      "ken": 1622,
      "sour": 1623,
      "getting": 1624,
      "Merci": 1625,
      "u00e9b": 1626,
      "u00e9ve": 1627,
      "00": 1628,
      "rir": 1629,
      "sig": 1630,
      "soyez": 1631,
      "At": 1632,
      "tellement": 1633,
      "ances": 1634,
      "Dis": 1635,
      "teacher": 1636,
      "amus": 1637,
      "ression": 1638,
      "envie": 1639,
      "ision": 1640,
      "tant": 1641,
      "histoire": 1642,
      "pouvoir": 1643,
      "fier": 1644,
      "ignore": 1645,
      "Veu": 1646,
      "ensemble": 1647,
      "gla": 1648,
      "fini": 1649,
      "Veuillez": 1650,
      "Son": 1651,
      "onn": 1652,
      "dir": 1653,
      "demander": 1654,
      "nis": 1655,
      "show": 1656,
      "enne": 1657,
      "mot": 1658,
      "English": 1659,
      "sort": 1660,
      "party": 1661,
      "around": 1662,
      "offe": 1663,
      "vue": 1664,
      "tenir": 1665,
      "matter": 1666,
      "secret": 1667,
      "bout": 1668,
      "vir": 1669,
      "livres": 1670,
      "mani": 1671,
      "aucun": 1672,
      "travaille": 1673,
      "dio": 1674,
      "myself": 1675,
      "u00e9lo": 1676,
      "pru": 1677,
      "situation": 1678,
      "hun": 1679,
      "Could": 1680,
      "fall": 1681,
      "indre": 1682,
      "less": 1683,
      "ateur": 1684,
      "sister": 1685,
      "aille": 1686,
      "u00e7u": 1687,
      "vivre": 1688,
      "ali": 1689,
      "reux": 1690,
      "attr": 1691,
      "dix": 1692,
      "u00e9crire": 1693,
      "tain": 1694,
      "u00e9un": 1695,
      "Fais": 1696,
      "char": 1697,
      "tennis": 1698,
      "face": 1699,
      "cade": 1700,
      "ps": 1701,
      "Te": 1702,
      "yer": 1703,
      "early": 1704,
      "while": 1705,
      "because": 1706,
      "rence": 1707,
      "prison": 1708,
      "bless": 1709,
      "conque": 1710,
      "break": 1711,
      "mange": 1712,
      "once": 1713,
      "u00e9cid": 1714,
      "u00e9de": 1715,
      "appel": 1716,
      "suppose": 1717,
      "full": 1718,
      "pect": 1719,
      "apprendre": 1720,
      "pourrais": 1721,
      "vice": 1722,
      "food": 1723,
      "souh": 1724,
      "chaque": 1725,
      "restaur": 1726,
      "doctor": 1727,
      "cie": 1728,
      "poser": 1729,
      "u00e9crit": 1730,
      "endroit": 1731,
      "turn": 1732,
      "riture": 1733,
      "letter": 1734,
      "another": 1735,
      "froid": 1736,
      "personnes": 1737,
      "nager": 1738,
      "u00e9cout": 1739,
      "offee": 1740,
      "devrait": 1741,
      "fen": 1742,
      "ste": 1743,
      "drai": 1744,
      "might": 1745,
      "vieux": 1746,
      "family": 1747,
      "seulement": 1748,
      "satis": 1749,
      "lev": 1750,
      "erreur": 1751,
      "far": 1752,
      "rite": 1753,
      "tomb": 1754,
      "Everyone": 1755,
      "fils": 1756,
      "tried": 1757,
      "comprends": 1758,
      "u00e9pare": 1759,
      "lorsque": 1760,
      "cted": 1761,
      "coffee": 1762,
      "u00e9par": 1763,
      "mois": 1764,
      "listen": 1765,
      "writ": 1766,
      "died": 1767,
      "uni": 1768,
      "midi": 1769,
      "habit": 1770,
      "discut": 1771,
      "gether": 1772,
      "ordin": 1773,
      "u00e9cou": 1774,
      "together": 1775,
      "beauti": 1776,
      "facile": 1777,
      "seems": 1778,
      "u00e9union": 1779,
      "ban": 1780,
      "pie": 1781,
      "station": 1782,
      "u00e9teste": 1783,
      "voudrais": 1784,
      "Quelqu": 1785,
      "u00e9us": 1786,
      "coming": 1787,
      "diffe": 1788,
      "vision": 1789,
      "meeting": 1790,
      "oked": 1791,
      "anymore": 1792,
      "ferais": 1793,
      "devrions": 1794,
      "Voulez": 1795,
      "ute": 1796,
      "head": 1797,
      "u00e8te": 1798,
      "plais": 1799,
      "nice": 1800,
      "beautiful": 1801,
      "young": 1802,
      "offi": 1803,
      "wear": 1804,
      "bras": 1805,
      "easy": 1806,
      "inform": 1807,
      "comprendre": 1808,
      "u00fbre": 1809,
      "laisser": 1810,
      "bag": 1811,
      "key": 1812,
      "reste": 1813,
      "Laisse": 1814,
      "sugg": 1815,
      "almost": 1816,
      "amie": 1817,
      "own": 1818,
      "joue": 1819,
      "confiance": 1820,
      "tal": 1821,
      "usu": 1822,
      "content": 1823,
      "exac": 1824,
      "conna": 1825,
      "books": 1826,
      "continu": 1827,
      "nourriture": 1828,
      "Veux": 1829,
      "bar": 1830,
      "such": 1831,
      "uf": 1832,
      "married": 1833,
      "sorry": 1834,
      "truth": 1835,
      "conduire": 1836,
      "ond": 1837,
      "meilleur": 1838,
      "mission": 1839,
      "malade": 1840,
      "unt": 1841,
      "likes": 1842,
      "world": 1843,
      "restaurant": 1844,
      "Ap": 1845,
      "penses": 1846,
      "sembl": 1847,
      "u00e2ge": 1848,
      "dernier": 1849,
      "cti": 1850,
      "ttes": 1851,
      "intent": 1852,
      "pays": 1853,
      "u00e9ponse": 1854,
      "dollars": 1855,
      "aw": 1856,
      "four": 1857,
      "deci": 1858,
      "diction": 1859,
      "six": 1860,
      "sive": 1861,
      "u00e9cie": 1862,
      "anim": 1863,
      "serais": 1864,
      "regarder": 1865,
      "porter": 1866,
      "resse": 1867,
      "wouldn": 1868,
      "So": 1869,
      "belle": 1870,
      "rapide": 1871,
      "ph": 1872,
      "u00e9si": 1873,
      "working": 1874,
      "top": 1875,
      "march": 1876,
      "importe": 1877,
      "fav": 1878,
      "join": 1879,
      "compte": 1880,
      "langu": 1881,
      "chemin": 1882,
      "visit": 1883,
      "bient": 1884,
      "talking": 1885,
      "u00e9ussi": 1886,
      "Ces": 1887,
      "iner": 1888,
      "ced": 1889,
      "trou": 1890,
      "mess": 1891,
      "venue": 1892,
      "ather": 1893,
      "boire": 1894,
      "cess": 1895,
      "ious": 1896,
      "allons": 1897,
      "favor": 1898,
      "minute": 1899,
      "impression": 1900,
      "each": 1901,
      "fou": 1902,
      "compl": 1903,
      "pian": 1904,
      "ding": 1905,
      "trying": 1906,
      "dormir": 1907,
      "joy": 1908,
      "bois": 1909,
      "tax": 1910,
      "pret": 1911,
      "secon": 1912,
      "30": 1913,
      "chaus": 1914,
      "penser": 1915,
      "prix": 1916,
      "An": 1917,
      "Sa": 1918,
      "aurait": 1919,
      "cs": 1920,
      "vin": 1921,
      "din": 1922,
      "chan": 1923,
      "autant": 1924,
      "u00e9decin": 1925,
      "bir": 1926,
      "dress": 1927,
      "suff": 1928,
      "rends": 1929,
      "terri": 1930,
      "u00eener": 1931,
      "premier": 1932,
      "aite": 1933,
      "exc": 1934,
      "pom": 1935,
      "its": 1936,
      "excus": 1937,
      "someone": 1938,
      "cook": 1939,
      "high": 1940,
      "yourself": 1941,
      "iller": 1942,
      "corre": 1943,
      "senti": 1944,
      "u00e9tudier": 1945,
      "Japon": 1946,
      "sil": 1947,
      "smo": 1948,
      "u00e9ment": 1949,
      "song": 1950,
      "hate": 1951,
      "shouldn": 1952,
      "professe": 1953,
      "cur": 1954,
      "ago": 1955,
      "dessus": 1956,
      "commenc": 1957,
      "intention": 1958,
      "aires": 1959,
      "succ": 1960,
      "dow": 1961,
      "plut": 1962,
      "wife": 1963,
      "learn": 1964,
      "exactement": 1965,
      "bri": 1966,
      "iti": 1967,
      "log": 1968,
      "prend": 1969,
      "Mes": 1970,
      "pul": 1971,
      "tonight": 1972,
      "turned": 1973,
      "expli": 1974,
      "nos": 1975,
      "ainsi": 1976,
      "genre": 1977,
      "ran": 1978,
      "celui": 1979,
      "alors": 1980,
      "opin": 1981,
      "lou": 1982,
      "u00e9qui": 1983,
      "verre": 1984,
      "net": 1985,
      "actu": 1986,
      "prochaine": 1987,
      "allez": 1988,
      "looked": 1989,
      "word": 1990,
      "musique": 1991,
      "guy": 1992,
      "wom": 1993,
      "ables": 1994,
      "started": 1995,
      "pretty": 1996,
      "sm": 1997,
      "u00e9rer": 1998,
      "month": 1999,
      "cheveux": 2000,
      "mains": 2001,
      "publi": 2002,
      "mine": 2003,
      "promis": 2004,
      "cli": 2005,
      "pouvais": 2006,
      "Thank": 2007,
      "Regar": 2008,
      "u00e9ni": 2009,
      "thir": 2010,
      "u00fbt": 2011,
      "voyage": 2012,
      "Laissez": 2013,
      "piano": 2014,
      "write": 2015,
      "changer": 2016,
      "trans": 2017,
      "alie": 2018,
      "aband": 2019,
      "forget": 2020,
      "longer": 2021,
      "window": 2022,
      "fonction": 2023,
      "probablement": 2024,
      "Tous": 2025,
      "aren": 2026,
      "ason": 2027,
      "consi": 2028,
      "cycle": 2029,
      "ron": 2030,
      "sac": 2031,
      "med": 2032,
      "u00e8mes": 2033,
      "loin": 2034,
      "imm": 2035,
      "auto": 2036,
      "both": 2037,
      "payer": 2038,
      "chanter": 2039,
      "appris": 2040,
      "fire": 2041,
      "bres": 2042,
      "dehors": 2043,
      "takes": 2044,
      "lieu": 2045,
      "Peut": 2046,
      "rente": 2047,
      "agit": 2048,
      "foot": 2049,
      "waiting": 2050,
      "u00e9parer": 2051,
      "mour": 2052,
      "ites": 2053,
      "riez": 2054,
      "prit": 2055,
      "amment": 2056,
      "faim": 2057,
      "emploi": 2058,
      "consci": 2059,
      "Am": 2060,
      "inc": 2061,
      "boulot": 2062,
      "tick": 2063,
      "mont": 2064,
      "ige": 2065,
      "puisse": 2066,
      "Votre": 2067,
      "fit": 2068,
      "spend": 2069,
      "cier": 2070,
      "sick": 2071,
      "exce": 2072,
      "u00e9cess": 2073,
      "soun": 2074,
      "office": 2075,
      "fish": 2076,
      "enjoy": 2077,
      "capable": 2078,
      "interest": 2079,
      "professeur": 2080,
      "illes": 2081,
      "iness": 2082,
      "road": 2083,
      "Does": 2084,
      "vant": 2085,
      "those": 2086,
      "near": 2087,
      "pois": 2088,
      "everyone": 2089,
      "guit": 2090,
      "comple": 2091,
      "story": 2092,
      "u00c9t": 2093,
      "yo": 2094,
      "set": 2095,
      "choix": 2096,
      "u00e8g": 2097,
      "forgot": 2098,
      "Our": 2099,
      "TV": 2100,
      "tic": 2101,
      "exact": 2102,
      "medi": 2103,
      "super": 2104,
      "u00e9tions": 2105,
      "himself": 2106,
      "visite": 2107,
      "bur": 2108,
      "nor": 2109,
      "mean": 2110,
      "start": 2111,
      "agne": 2112,
      "finished": 2113,
      "den": 2114,
      "hair": 2115,
      "oubl": 2116,
      "erai": 2117,
      "times": 2118,
      "ping": 2119,
      "voi": 2120,
      "meur": 2121,
      "plait": 2122,
      "quite": 2123,
      "u2019ai": 2124,
      "chaud": 2125,
      "until": 2126,
      "entr": 2127,
      "free": 2128,
      "noon": 2129,
      "peau": 2130,
      "makes": 2131,
      "enseign": 2132,
      "Be": 2133,
      "Nobody": 2134,
      "ignor": 2135,
      "dinner": 2136,
      ".\\\"": 2137,
      "na": 2138,
      "als": 2139,
      "chercher": 2140,
      "emb": 2141,
      "pleu": 2142,
      "tellig": 2143,
      "commence": 2144,
      "sures": 2145,
      "appro": 2146,
      "perdre": 2147,
      "mistake": 2148,
      "hurt": 2149,
      "accept": 2150,
      "hours": 2151,
      "weather": 2152,
      "music": 2153,
      "class": 2154,
      "sav": 2155,
      "intellig": 2156,
      "lau": 2157,
      "ained": 2158,
      "since": 2159,
      "war": 2160,
      "tralie": 2161,
      "aites": 2162,
      "u00e9cur": 2163,
      "affaire": 2164,
      "peuvent": 2165,
      "Australie": 2166,
      "u00e9rieur": 2167,
      "fus": 2168,
      "envoy": 2169,
      "anc": 2170,
      "ast": 2171,
      "contrer": 2172,
      "movie": 2173,
      "marcher": 2174,
      "expl": 2175,
      "ferm": 2176,
      "appeler": 2177,
      "says": 2178,
      "pouvait": 2179,
      "usually": 2180,
      "opinion": 2181,
      "small": 2182,
      "len": 2183,
      "pau": 2184,
      "test": 2185,
      "ghter": 2186,
      "fic": 2187,
      "dites": 2188,
      "town": 2189,
      "enti": 2190,
      "bicycle": 2191,
      "radio": 2192,
      "journal": 2193,
      "glas": 2194,
      "paravant": 2195,
      "rencontrer": 2196,
      "popul": 2197,
      "u2019est": 2198,
      "habitude": 2199,
      "pou": 2200,
      "pare": 2201,
      "vont": 2202,
      "lec": 2203,
      "ilit": 2204,
      "present": 2205,
      "lunch": 2206,
      "gard": 2207,
      "poi": 2208,
      "spo": 2209,
      "auparavant": 2210,
      "country": 2211,
      "assis": 2212,
      "prochain": 2213,
      "discuter": 2214,
      "decided": 2215,
      "gue": 2216,
      "agree": 2217,
      "atement": 2218,
      "impos": 2219,
      "u00e9pondre": 2220,
      "devoirs": 2221,
      "cadeau": 2222,
      "fac": 2223,
      "u00e9te": 2224,
      "ating": 2225,
      "ings": 2226,
      "Pourriez": 2227,
      "Will": 2228,
      "ade": 2229,
      "flo": 2230,
      "oblig": 2231,
      "croy": 2232,
      "ward": 2233,
      "quie": 2234,
      "montrer": 2235,
      "surprise": 2236,
      "ss": 2237,
      "inqui": 2238,
      "suite": 2239,
      "Notre": 2240,
      "compli": 2241,
      "lumi": 2242,
      "These": 2243,
      "convain": 2244,
      "law": 2245,
      "lier": 2246,
      "hot": 2247,
      "playing": 2248,
      "called": 2249,
      "u00e9tranger": 2250,
      "gagner": 2251,
      "message": 2252,
      "cen": 2253,
      "u00eacher": 2254,
      "ari": 2255,
      "u00e8ve": 2256,
      "u00e7ons": 2257,
      "eyes": 2258,
      "Give": 2259,
      "vert": 2260,
      "moy": 2261,
      "mise": 2262,
      "nouvelles": 2263,
      "rough": 2264,
      "utiliser": 2265,
      "u00e9curit": 2266,
      "lia": 2267,
      "discus": 2268,
      "u00e9fl": 2269,
      "Tell": 2270,
      "suffis": 2271,
      "ably": 2272,
      "colle": 2273,
      "exper": 2274,
      "u00f4le": 2275,
      "prise": 2276,
      "later": 2277,
      "u00e9quipe": 2278,
      "concert": 2279,
      "dream": 2280,
      "\"\\\"": 2281,
      "route": 2282,
      "bal": 2283,
      "savez": 2284,
      "u00e9li": 2285,
      "u00e9ter": 2286,
      "rested": 2287,
      "ution": 2288,
      "cost": 2289,
      "commencer": 2290,
      "broke": 2291,
      "having": 2292,
      "u00e9veill": 2293,
      "dro": 2294,
      "savait": 2295,
      "remar": 2296,
      "sign": 2297,
      "montre": 2298,
      "ience": 2299,
      "felt": 2300,
      "box": 2301,
      "reading": 2302,
      "u00e9diatement": 2303,
      "impossible": 2304,
      "jo": 2305,
      "reason": 2306,
      "parce": 2307,
      "u00e9ten": 2308,
      "rentrer": 2309,
      "u00e9sor": 2310,
      "clean": 2311,
      "occu": 2312,
      "pous": 2313,
      "sult": 2314,
      "lives": 2315,
      "angry": 2316,
      "chois": 2317,
      "chaussures": 2318,
      "\":": 2319,
      "cked": 2320,
      "gone": 2321,
      "u00e9al": 2322,
      "lose": 2323,
      "pensez": 2324,
      "Pourrais": 2325,
      "trait": 2326,
      "peine": 2327,
      "u00e9cision": 2328,
      "luck": 2329,
      "u00eetre": 2330,
      "imagin": 2331,
      "glad": 2332,
      "lait": 2333,
      "pap": 2334,
      "fell": 2335,
      "anybody": 2336,
      "ferai": 2337,
      "type": 2338,
      "cinq": 2339,
      "magas": 2340,
      "Amer": 2341,
      "rendu": 2342,
      "derri": 2343,
      "ched": 2344,
      "nent": 2345,
      "tree": 2346,
      "certaine": 2347,
      "produit": 2348,
      "classe": 2349,
      "lundi": 2350,
      "Faites": 2351,
      "droit": 2352,
      "ick": 2353,
      "entrer": 2354,
      "avis": 2355,
      "alth": 2356,
      "eating": 2357,
      "Des": 2358,
      "Her": 2359,
      "soi": 2360,
      "revoir": 2361,
      "aies": 2362,
      "prin": 2363,
      "needs": 2364,
      "patient": 2365,
      "Austra": 2366,
      "u00e9cessaire": 2367,
      "Go": 2368,
      "Pre": 2369,
      "case": 2370,
      "grow": 2371,
      "era": 2372,
      "u00e8rement": 2373,
      "voulons": 2374,
      "accep": 2375,
      "snow": 2376,
      "arbre": 2377,
      "tele": 2378,
      "rich": 2379,
      "simple": 2380,
      "base": 2381,
      "dau": 2382,
      "eded": 2383,
      "ore": 2384,
      "ras": 2385,
      "rend": 2386,
      "front": 2387,
      "fix": 2388,
      "drive": 2389,
      "vaise": 2390,
      "devenir": 2391,
      "mez": 2392,
      "u00e8tement": 2393,
      "driez": 2394,
      "usement": 2395,
      "tomber": 2396,
      "mauvaise": 2397,
      "stupid": 2398,
      "trouble": 2399,
      "Ton": 2400,
      "ctu": 2401,
      "stre": 2402,
      "fect": 2403,
      "nombreux": 2404,
      "public": 2405,
      "interesting": 2406,
      "Australia": 2407,
      "amou": 2408,
      "mach": 2409,
      "dition": 2410,
      "foll": 2411,
      "bruit": 2412,
      "respons": 2413,
      "different": 2414,
      "rapidement": 2415,
      "ls": 2416,
      "zz": 2417,
      "ames": 2418,
      "terre": 2419,
      "hosp": 2420,
      "u00e2teau": 2421,
      "students": 2422,
      "close": 2423,
      "Everybody": 2424,
      "instant": 2425,
      "Penses": 2426,
      "taxi": 2427,
      "ines": 2428,
      "urer": 2429,
      "chanson": 2430,
      "anni": 2431,
      "leav": 2432,
      "riche": 2433,
      "propre": 2434,
      "laisse": 2435,
      "shop": 2436,
      "afternoon": 2437,
      "langue": 2438,
      "u00eete": 2439,
      "ordinateur": 2440,
      "quiet": 2441,
      "Ex": 2442,
      "pes": 2443,
      "ulent": 2444,
      "garder": 2445,
      "refus": 2446,
      "cass": 2447,
      "fie": 2448,
      "u00e9vision": 2449,
      "sum": 2450,
      ".\\\"\":": 2451,
      "Alle": 2452,
      "Take": 2453,
      "font": 2454,
      "igh": 2455,
      "rue": 2456,
      "trente": 2457,
      "command": 2458,
      "advice": 2459,
      "hip": 2460,
      "expect": 2461,
      "arrived": 2462,
      "\"],": 2463,
      "indi": 2464,
      "atre": 2465,
      "park": 2466,
      "apon": 2467,
      "acti": 2468,
      "cherche": 2469,
      "information": 2470,
      "Sais": 2471,
      "Whi": 2472,
      "u00e9d": 2473,
      "picture": 2474,
      "mien": 2475,
      "celle": 2476,
      "trom": 2477,
      "eti": 2478,
      "ains": 2479,
      "u00f4p": 2480,
      "signi": 2481,
      "Lo": 2482,
      "bab": 2483,
      "u00e9du": 2484,
      "sty": 2485,
      "cial": 2486,
      "quick": 2487,
      "vide": 2488,
      "travers": 2489,
      "faisait": 2490,
      "caught": 2491,
      "symp": 2492,
      "mur": 2493,
      "through": 2494,
      "affai": 2495,
      "Pensez": 2496,
      "autoris": 2497,
      "Tok": 2498,
      "mment": 2499,
      "u00e9v": 2500,
      "ayez": 2501,
      "sole": 2502,
      "fig": 2503,
      "u00f4tel": 2504,
      "u00eatements": 2505,
      "exactly": 2506,
      "Tokyo": 2507,
      "cine": 2508,
      "tenu": 2509,
      "plein": 2510,
      "Dites": 2511,
      "Savez": 2512,
      "solu": 2513,
      "u00f4pital": 2514,
      "Prends": 2515,
      "avion": 2516,
      "touch": 2517,
      "u00e9tudiants": 2518,
      "probably": 2519,
      "conseill": 2520,
      "u00e9ressant": 2521,
      "vacances": 2522,
      "rece": 2523,
      "neige": 2524,
      "kept": 2525,
      "news": 2526,
      "devant": 2527,
      "chapeau": 2528,
      "daughter": 2529,
      "hospital": 2530,
      "doi": 2531,
      "rare": 2532,
      "fruit": 2533,
      "finir": 2534,
      "fumer": 2535,
      "rappelle": 2536,
      "large": 2537,
      "favorite": 2538,
      "Get": 2539,
      "ling": 2540,
      "sun": 2541,
      "sorte": 2542,
      "u00e8que": 2543,
      "polit": 2544,
      "works": 2545,
      "build": 2546,
      "affaires": 2547,
      "viol": 2548,
      "gram": 2549,
      "Come": 2550,
      "cry": 2551,
      "cto": 2552,
      "naire": 2553,
      "serious": 2554,
      "Donne": 2555,
      "comput": 2556,
      "vouloir": 2557,
      "souviens": 2558,
      "univers": 2559,
      "Soyez": 2560,
      "annivers": 2561,
      "game": 2562,
      "pan": 2563,
      "u00ef": 2564,
      "esca": 2565,
      "dec": 2566,
      "veulent": 2567,
      "carte": 2568,
      "homework": 2569,
      "stupide": 2570,
      "number": 2571,
      "magasin": 2572,
      "St": 2573,
      "Stop": 2574,
      "pped": 2575,
      "aimes": 2576,
      "team": 2577,
      "Comme": 2578,
      "company": 2579,
      "appelle": 2580,
      "u0153il": 2581,
      "rouge": 2582,
      "cuisine": 2583,
      "band": 2584,
      "blo": 2585,
      "sib": 2586,
      "grou": 2587,
      "impat": 2588,
      "against": 2589,
      "fasse": 2590,
      "shoes": 2591,
      "machine": 2592,
      "baby": 2593,
      "card": 2594,
      "reconnais": 2595,
      "arti": 2596,
      "rivi": 2597,
      "conf": 2598,
      "ween": 2599,
      "projet": 2600,
      "taking": 2601,
      "u00fbte": 2602,
      "hands": 2603,
      "Cet": 2604,
      "lune": 2605,
      "oud": 2606,
      "choi": 2607,
      "avo": 2608,
      "comes": 2609,
      "soin": 2610,
      "poste": 2611,
      "business": 2612,
      "surprised": 2613,
      "jard": 2614,
      "oth": 2615,
      "iss": 2616,
      "ater": 2617,
      "order": 2618,
      "sub": 2619,
      "u00e8ne": 2620,
      "post": 2621,
      "somme": 2622,
      "short": 2623,
      "vieille": 2624,
      "tort": 2625,
      "rapport": 2626,
      "envir": 2627,
      "teach": 2628,
      "suit": 2629,
      "offer": 2630,
      "rentr": 2631,
      "posed": 2632,
      "making": 2633,
      "fri": 2634,
      "gan": 2635,
      "mou": 2636,
      "wine": 2637,
      "trave": 2638,
      "accus": 2639,
      "empr": 2640,
      "discuss": 2641,
      "adi": 2642,
      "iques": 2643,
      "japon": 2644,
      "living": 2645,
      "parc": 2646,
      "safe": 2647,
      "worry": 2648,
      "u00e2mes": 2649,
      "Japanese": 2650,
      "prudent": 2651,
      "zed": 2652,
      "dispose": 2653,
      "wal": 2654,
      "real": 2655,
      "ieurs": 2656,
      "outside": 2657,
      "donc": 2658,
      "gry": 2659,
      "ately": 2660,
      "endor": 2661,
      "regret": 2662,
      "Auc": 2663,
      "hungry": 2664,
      "plaisir": 2665,
      "woman": 2666,
      "jardin": 2667,
      "Sh": 2668,
      "dange": 2669,
      "mill": 2670,
      "lever": 2671,
      "ark": 2672,
      "u00eatez": 2673,
      "spent": 2674,
      "examen": 2675,
      "Rien": 2676,
      "intr": 2677,
      "poin": 2678,
      "everybody": 2679,
      "nombreuses": 2680,
      "soleil": 2681,
      "anniversaire": 2682,
      "Jo": 2683,
      "ible": 2684,
      "ki": 2685,
      "land": 2686,
      "ennu": 2687,
      "then": 2688,
      "tely": 2689,
      "trust": 2690,
      "pensive": 2691,
      "robe": 2692,
      "five": 2693,
      "thinking": 2694,
      "manche": 2695,
      "viendra": 2696,
      "quatre": 2697,
      "sul": 2698,
      "libre": 2699,
      "expensive": 2700,
      "finish": 2701,
      "occas": 2702,
      "Allez": 2703,
      "dence": 2704,
      "lus": 2705,
      "aver": 2706,
      "coll": 2707,
      "clock": 2708,
      "cens": 2709,
      "dom": 2710,
      "dance": 2711,
      "ertain": 2712,
      "compag": 2713,
      "Monday": 2714,
      "careful": 2715,
      "meilleure": 2716,
      "begin": 2717,
      "u00e9sormais": 2718,
      "ither": 2719,
      "ener": 2720,
      "needed": 2721,
      "tea": 2722,
      "unk": 2723,
      "become": 2724,
      "attends": 2725,
      "liste": 2726,
      "To": 2727,
      "hal": 2728,
      "chante": 2729,
      "river": 2730,
      "amies": 2731,
      "faute": 2732,
      "expliquer": 2733,
      "abandon": 2734,
      "intelligent": 2735,
      "Prenez": 2736,
      "ming": 2737,
      "eng": 2738,
      "devenu": 2739,
      "health": 2740,
      "pire": 2741,
      "strong": 2742,
      "conseil": 2743,
      "bate": 2744,
      "pied": 2745,
      "laquelle": 2746,
      "airs": 2747,
      "guess": 2748,
      "promise": 2749,
      "effr": 2750,
      "city": 2751,
      "necess": 2752,
      "conom": 2753,
      "mots": 2754,
      "manque": 2755,
      "voulu": 2756,
      "courage": 2757,
      "guerre": 2758,
      "netto": 2759,
      "date": 2760,
      "noir": 2761,
      "u00e9che": 2762,
      "u00e9rence": 2763,
      "ash": 2764,
      "dead": 2765,
      "iles": 2766,
      "dons": 2767,
      "chiens": 2768,
      "changed": 2769,
      "excuses": 2770,
      "owed": 2771,
      "rem": 2772,
      "u00e9ce": 2773,
      "venus": 2774,
      "ouvrir": 2775,
      "plage": 2776,
      "mourir": 2777,
      "Which": 2778,
      "Pr": 2779,
      "hum": 2780,
      "hind": 2781,
      "mets": 2782,
      "comm": 2783,
      "illed": 2784,
      "cherch": 2785,
      "clear": 2786,
      "Atten": 2787,
      "fully": 2788,
      "?\\\"": 2789,
      "ace": 2790,
      "dest": 2791,
      "fleurs": 2792,
      "idi": 2793,
      "cir": 2794,
      "u0153uf": 2795,
      "dormi": 2796,
      "poids": 2797,
      "computer": 2798,
      "choice": 2799,
      "Lors": 2800,
      "dark": 2801,
      "pon": 2802,
      "vaut": 2803,
      "enez": 2804,
      "arre": 2805,
      "beer": 2806,
      "taken": 2807,
      "worth": 2808,
      "priv": 2809,
      "lorsqu": 2810,
      "patron": 2811,
      "birth": 2812,
      "consid": 2813,
      "summer": 2814,
      "etimes": 2815,
      "Res": 2816,
      "cup": 2817,
      "sen": 2818,
      "sport": 2819,
      "tasse": 2820,
      "death": 2821,
      "behind": 2822,
      "compris": 2823,
      "donne": 2824,
      "dispos": 2825,
      "court": 2826,
      "bibli": 2827,
      "saying": 2828,
      "whole": 2829,
      "suppos": 2830,
      "cloth": 2831,
      "catch": 2832,
      "breakfast": 2833,
      "correct": 2834,
      "idiot": 2835,
      "biblioth": 2836,
      "Certain": 2837,
      "pected": 2838,
      "div": 2839,
      "quiconque": 2840,
      "courir": 2841,
      "store": 2842,
      "spect": 2843,
      "attendu": 2844,
      "honn": 2845,
      "gagn": 2846,
      "habitue": 2847,
      "occuper": 2848,
      "ug": 2849,
      "u00e9ser": 2850,
      "organ": 2851,
      "appar": 2852,
      "tien": 2853,
      "ured": 2854,
      "hommes": 2855,
      "terrible": 2856,
      "quickly": 2857,
      "rav": 2858,
      "u00e9rien": 2859,
      "deal": 2860,
      "tile": 2861,
      "filles": 2862,
      "u00e9sou": 2863,
      "manqu": 2864,
      "prenez": 2865,
      "souci": 2866,
      "stayed": 2867,
      "ticket": 2868,
      "avocat": 2869,
      "hn": 2870,
      "rai": 2871,
      "sci": 2872,
      "whe": 2873,
      "u00e9pr": 2874,
      "lac": 2875,
      "advis": 2876,
      "proche": 2877,
      "pleurer": 2878,
      "pluie": 2879,
      "wearing": 2880,
      "suffisamment": 2881,
      "Many": 2882,
      "ature": 2883,
      "heart": 2884,
      "entra": 2885,
      "amour": 2886,
      "moindre": 2887,
      "viv": 2888,
      "shir": 2889,
      "laugh": 2890,
      "John": 2891,
      "occasion": 2892,
      "Just": 2893,
      "inno": 2894,
      "leg": 2895,
      "plant": 2896,
      "perfect": 2897,
      "bot": 2898,
      "vill": 2899,
      "problems": 2900,
      "dge": 2901,
      "ny": 2902,
      "ole": 2903,
      "ring": 2904,
      "loves": 2905,
      "manteau": 2906,
      "rather": 2907,
      "between": 2908,
      "u00e9trange": 2909,
      "attraper": 2910,
      "souhait": 2911,
      "oublie": 2912,
      "swe": 2913,
      "atte": 2914,
      "ili": 2915,
      "libr": 2916,
      "became": 2917,
      "dist": 2918,
      "mid": 2919,
      "biz": 2920,
      "quitter": 2921,
      "began": 2922,
      "dictionnaire": 2923,
      "u00e9soudre": 2924,
      "har": 2925,
      "ope": 2926,
      "ceux": 2927,
      "ieu": 2928,
      "aviez": 2929,
      "parap": 2930,
      "mesure": 2931,
      "connu": 2932,
      "ails": 2933,
      "u00eave": 2934,
      "remer": 2935,
      "att": 2936,
      "tures": 2937,
      "constr": 2938,
      "goes": 2939,
      "hotel": 2940,
      "tente": 2941,
      "u00e2ti": 2942,
      "Maybe": 2943,
      "language": 2944,
      "street": 2945,
      "Look": 2946,
      "Ke": 2947,
      "hit": 2948,
      "onne": 2949,
      "known": 2950,
      "plane": 2951,
      "photos": 2952,
      "appare": 2953,
      "watching": 2954,
      "milk": 2955,
      "u00e9couter": 2956,
      "Dans": 2957,
      "Se": 2958,
      "gri": 2959,
      "sme": 2960,
      "report": 2961,
      "u00e9ner": 2962,
      "assu": 2963,
      "soci": 2964,
      "coin": 2965,
      "chocol": 2966,
      "grap": 2967,
      "obje": 2968,
      "eaten": 2969,
      "interested": 2970,
      "decision": 2971,
      "necessary": 2972,
      "Apr": 2973,
      "jeu": 2974,
      "prefer": 2975,
      "ouvert": 2976,
      "Everything": 2977,
      "lectr": 2978,
      "OK": 2979,
      "fur": 2980,
      "scare": 2981,
      "arme": 2982,
      "acc": 2983,
      "fight": 2984,
      "souff": 2985,
      "supposed": 2986,
      "Essay": 2987,
      "studying": 2988,
      "Beau": 2989,
      "ffe": 2990,
      "flow": 2991,
      "pun": 2992,
      "sance": 2993,
      "proud": 2994,
      "absent": 2995,
      "sold": 2996,
      "marche": 2997,
      "fond": 2998,
      "count": 2999,
      "fonctionne": 3000,
      "u00e8gles": 3001,
      "pleuvoir": 3002,
      "follow": 3003,
      "Gar": 3004,
      "tas": 3005,
      "veille": 3006,
      "tran": 3007,
      "parfois": 3008,
      "ply": 3009,
      "rote": 3010,
      "ira": 3011,
      "irai": 3012,
      "broken": 3013,
      "enseig": 3014,
      "suggest": 3015,
      "garden": 3016,
      "kid": 3017,
      "paid": 3018,
      "press": 3019,
      "telle": 3020,
      "drait": 3021,
      "embr": 3022,
      "demanda": 3023,
      "u00e9dica": 3024,
      "souhaite": 3025,
      "thirty": 3026,
      "Keep": 3027,
      "sang": 3028,
      "concer": 3029,
      "complain": 3030,
      "preci": 3031,
      "student": 3032,
      "erreurs": 3033,
      "clothes": 3034,
      "One": 3035,
      "Sun": 3036,
      "allait": 3037,
      "ared": 3038,
      "solution": 3039,
      "furent": 3040,
      "closed": 3041,
      "quitt": 3042,
      "regarde": 3043,
      "born": 3044,
      "dangereux": 3045,
      "bateau": 3046,
      "Voi": 3047,
      "save": 3048,
      "wrote": 3049,
      "dimanche": 3050,
      "alit": 3051,
      "ples": 3052,
      "fermer": 3053,
      "luie": 3054,
      "vienne": 3055,
      "offre": 3056,
      "plupart": 3057,
      "poisson": 3058,
      "kids": 3059,
      "half": 3060,
      "effray": 3061,
      "parapluie": 3062,
      "Beaucoup": 3063,
      "Ta": 3064,
      "ush": 3065,
      "plans": 3066,
      "acqu": 3067,
      "autour": 3068,
      "Donnez": 3069,
      "ption": 3070,
      "u00e9tudiant": 3071,
      "lived": 3072,
      "asseoir": 3073,
      "ski": 3074,
      "Regarde": 3075,
      "Voici": 3076,
      "fair": 3077,
      "ness": 3078,
      "utile": 3079,
      "atta": 3080,
      "avions": 3081,
      "forc": 3082,
      "move": 3083,
      "u00e9rieux": 3084,
      "assist": 3085,
      "others": 3086,
      "feeling": 3087,
      "strange": 3088,
      "Allons": 3089,
      "Ses": 3090,
      "cation": 3091,
      "fied": 3092,
      "asleep": 3093,
      "neigh": 3094,
      "danser": 3095,
      "gentil": 3096,
      "sorti": 3097,
      "older": 3098,
      "dangerous": 3099,
      "building": 3100,
      "emprun": 3101,
      "cte": 3102,
      "gas": 3103,
      "haut": 3104,
      "anci": 3105,
      "const": 3106,
      "concent": 3107,
      "ressed": 3108,
      "worked": 3109,
      "femmes": 3110,
      "stopped": 3111,
      "continue": 3112,
      "attendais": 3113,
      "satisfait": 3114,
      "village": 3115,
      "Eur": 3116,
      "Plus": 3117,
      "aign": 3118,
      "u00e9jou": 3119,
      "erais": 3120,
      "ises": 3121,
      "coat": 3122,
      "possib": 3123,
      "speaks": 3124,
      "weekend": 3125,
      "doute": 3126,
      "success": 3127,
      "Restez": 3128,
      "bizarre": 3129,
      "adu": 3130,
      "bons": 3131,
      "sense": 3132,
      "repas": 3133,
      "ents": 3134,
      "fera": 3135,
      "stood": 3136,
      "trip": 3137,
      "bour": 3138,
      "dden": 3139,
      "gne": 3140,
      "rel": 3141,
      "u00e9re": 3142,
      "u00e9gu": 3143,
      "apo": 3144,
      "yours": 3145,
      "pizz": 3146,
      "feriez": 3147,
      "auriez": 3148,
      "dirait": 3149,
      "smell": 3150,
      "Reste": 3151,
      "bais": 3152,
      "u00e9m": 3153,
      "heav": 3154,
      "u00e8de": 3155,
      "along": 3156,
      "tirer": 3157,
      "u00e9cu": 3158,
      "gets": 3159,
      "visage": 3160,
      "faisons": 3161,
      "douleur": 3162,
      "grosse": 3163,
      "lunettes": 3164,
      "divor": 3165,
      "appareil": 3166,
      "10": 3167,
      "Ou": 3168,
      "gun": 3169,
      "hau": 3170,
      "kill": 3171,
      "line": 3172,
      "sand": 3173,
      "tall": 3174,
      "serez": 3175,
      "itch": 3176,
      "absolu": 3177,
      "ext": 3178,
      "speaking": 3179,
      "nature": 3180,
      "u00e9rience": 3181,
      "shirt": 3182,
      "Sois": 3183,
      "flu": 3184,
      "teen": 3185,
      "triste": 3186,
      "note": 3187,
      "weight": 3188,
      "tradu": 3189,
      "flowers": 3190,
      "ice": 3191,
      "dos": 3192,
      "respect": 3193,
      "bring": 3194,
      "hasn": 3195,
      "missed": 3196,
      "ical": 3197,
      "isez": 3198,
      "earth": 3199,
      "black": 3200,
      "horri": 3201,
      "suivre": 3202,
      "ctive": 3203,
      "second": 3204,
      "ode": 3205,
      "ouvr": 3206,
      "remp": 3207,
      "u00e9go": 3208,
      "wash": 3209,
      "adresse": 3210,
      "plusieurs": 3211,
      "New": 3212,
      "ctions": 3213,
      "entends": 3214,
      "entreprise": 3215,
      "evening": 3216,
      "running": 3217,
      "attrap": 3218,
      "pommes": 3219,
      "Americ": 3220,
      "Europe": 3221,
      "clu": 3222,
      "tres": 3223,
      "u00e9but": 3224,
      "sell": 3225,
      "mette": 3226,
      "noti": 3227,
      "rendez": 3228,
      "cool": 3229,
      "coucher": 3230,
      "vendre": 3231,
      "finalement": 3232,
      "courant": 3233,
      "match": 3234,
      "thank": 3235,
      "cake": 3236,
      "employ": 3237,
      "excell": 3238,
      "amoureux": 3239,
      "sommeil": 3240,
      "birthday": 3241,
      "Et": 3242,
      "killed": 3243,
      "check": 3244,
      "Toutes": 3245,
      "calme": 3246,
      "u00e9chir": 3247,
      "People": 3248,
      "Thanks": 3249,
      "sound": 3250,
      "Va": 3251,
      "cuse": 3252,
      "wall": 3253,
      "lla": 3254,
      "tique": 3255,
      "explain": 3256,
      "words": 3257,
      "traver": 3258,
      "Quelque": 3259,
      "camp": 3260,
      "swimming": 3261,
      "Excuse": 3262,
      "Lorsque": 3263,
      "ost": 3264,
      "enir": 3265,
      "least": 3266,
      "appreci": 3267,
      "Here": 3268,
      "cannot": 3269,
      "dise": 3270,
      "mistakes": 3271,
      "donna": 3272,
      "girlfriend": 3273,
      "salle": 3274,
      "guitar": 3275,
      "gau": 3276,
      "neuf": 3277,
      "beach": 3278,
      "cop": 3279,
      "cheval": 3280,
      "worried": 3281,
      "pleas": 3282,
      "helped": 3283,
      "habite": 3284,
      "u00e9ger": 3285,
      "proposition": 3286,
      "respon": 3287,
      "dictionary": 3288,
      "smoking": 3289,
      "cce": 3290,
      "pur": 3291,
      "tar": 3292,
      "esprit": 3293,
      "oncle": 3294,
      "persu": 3295,
      "chemise": 3296,
      "Ceci": 3297,
      "fine": 3298,
      "poss": 3299,
      "mariage": 3300,
      "talked": 3301,
      "advised": 3302,
      "library": 3303,
      "scared": 3304,
      "u00e9jouis": 3305,
      "cach": 3306,
      "ges": 3307,
      "ork": 3308,
      "chats": 3309,
      "avaient": 3310,
      "parfai": 3311,
      "descen": 3312,
      "service": 3313,
      "crit": 3314,
      "u00e9pous": 3315,
      "famous": 3316,
      "contact": 3317,
      "football": 3318,
      "fle": 3319,
      "mign": 3320,
      "nation": 3321,
      "u00e9mission": 3322,
      "tory": 3323,
      "sert": 3324,
      "likely": 3325,
      "bonnes": 3326,
      "which": 3327,
      "impressionn": 3328,
      "embarr": 3329,
      "remarqu": 3330,
      "baseball": 3331,
      "leaving": 3332,
      "Me": 3333,
      "paper": 3334,
      "slow": 3335,
      "voix": 3336,
      "deser": 3337,
      "seriez": 3338,
      "craz": 3339,
      "u00e9galement": 3340,
      "boute": 3341,
      "white": 3342,
      "ciel": 3343,
      "joindre": 3344,
      "normal": 3345,
      "fl": 3346,
      "aiment": 3347,
      "parfait": 3348,
      "ressemble": 3349,
      "gol": 3350,
      "logi": 3351,
      "brou": 3352,
      "rappeler": 3353,
      "amusant": 3354,
      "writing": 3355,
      "banque": 3356,
      "seconde": 3357,
      "ignorais": 3358,
      "bank": 3359,
      "fant": 3360,
      "gif": 3361,
      "savons": 3362,
      "atique": 3363,
      "chair": 3364,
      "aug": 3365,
      "traite": 3366,
      "cilement": 3367,
      "weren": 3368,
      "seras": 3369,
      "expected": 3370,
      "drunk": 3371,
      "u00e9range": 3372,
      "umbre": 3373,
      "espoir": 3374,
      "action": 3375,
      "dogs": 3376,
      "champ": 3377,
      "hurry": 3378,
      "accepter": 3379,
      "environ": 3380,
      "whether": 3381,
      "asser": 3382,
      "boss": 3383,
      "vies": 3384,
      "dispo": 3385,
      "compter": 3386,
      "list": 3387,
      "learned": 3388,
      "retourner": 3389,
      "excit": 3390,
      "japonais": 3391,
      "u00e2timent": 3392,
      "emprunter": 3393,
      "crazy": 3394,
      "ele": 3395,
      "uve": 3396,
      "ative": 3397,
      "nement": 3398,
      "noise": 3399,
      "appa": 3400,
      "forme": 3401,
      "u00e9cri": 3402,
      "essaie": 3403,
      "finally": 3404,
      "longue": 3405,
      "Montre": 3406,
      "future": 3407,
      "tableau": 3408,
      "conseils": 3409,
      "crime": 3410,
      "enseignant": 3411,
      "distance": 3412,
      "eur": 3413,
      "fs": 3414,
      "hus": 3415,
      "rat": 3416,
      "ram": 3417,
      "reco": 3418,
      "enn": 3419,
      "u00e9sult": 3420,
      "compren": 3421,
      "lying": 3422,
      "disap": 3423,
      "portes": 3424,
      "sentir": 3425,
      "u00e9tudie": 3426,
      "particu": 3427,
      "explic": 3428,
      "Someone": 3429,
      "u00e9barr": 3430,
      "pieds": 3431,
      "animaux": 3432,
      "guys": 3433,
      "glass": 3434,
      "lucky": 3435,
      "pizza": 3436,
      "Fr": 3437,
      "Tr": 3438,
      "zo": 3439,
      "u00e9vit": 3440,
      "inconv": 3441,
      "dered": 3442,
      "vered": 3443,
      "wel": 3444,
      "venez": 3445,
      "impli": 3446,
      "embras": 3447,
      "u00e9rique": 3448,
      "battre": 3449,
      "u00e9senter": 3450,
      "signifie": 3451,
      "u0153ufs": 3452,
      "aque": 3453,
      "taille": 3454,
      "u00e9rent": 3455,
      "nove": 3456,
      "ject": 3457,
      "tire": 3458,
      "tient": 3459,
      "couleur": 3460,
      "uilles": 3461,
      "fique": 3462,
      "mark": 3463,
      "somewhere": 3464,
      "soup": 3465,
      "u00e2g": 3466,
      "racon": 3467,
      "doub": 3468,
      "written": 3469,
      "completely": 3470,
      "responsable": 3471,
      "shopping": 3472,
      "article": 3473,
      "husband": 3474,
      "ime": 3475,
      "ator": 3476,
      "succe": 3477,
      "tuer": 3478,
      "poor": 3479,
      "hold": 3480,
      "viande": 3481,
      "brought": 3482,
      "voyager": 3483,
      "u00e9chou": 3484,
      "rules": 3485,
      "moyen": 3486,
      "papier": 3487,
      "Con": 3488,
      "Fer": 3489,
      "gy": 3490,
      "page": 3491,
      "u00e9qu": 3492,
      "dedans": 3493,
      "lay": 3494,
      "chi": 3495,
      "ries": 3496,
      "parlez": 3497,
      "parviens": 3498,
      "institu": 3499,
      "imagine": 3500,
      "u00e9nient": 3501,
      "guitare": 3502,
      "commun": 3503,
      "umbrella": 3504,
      "Now": 3505,
      "Was": 3506,
      "egg": 3507,
      "sle": 3508,
      "sad": 3509,
      "u00eache": 3510,
      "issez": 3511,
      "sucre": 3512,
      "agr": 3513,
      "due": 3514,
      "hiver": 3515,
      "pick": 3516,
      "floor": 3517,
      "stylo": 3518,
      "walked": 3519,
      "Cont": 3520,
      "pai": 3521,
      "vain": 3522,
      "chou": 3523,
      "oite": 3524,
      "pron": 3525,
      "u00e8ge": 3526,
      "avance": 3527,
      "urgent": 3528,
      "desk": 3529,
      "prote": 3530,
      "program": 3531,
      "Nothing": 3532,
      "glasses": 3533,
      "Aucun": 3534,
      "appreciate": 3535,
      "Put": 3536,
      "bille": 3537,
      "bill": 3538,
      "bath": 3539,
      "rhu": 3540,
      "u00e9lic": 3541,
      "tee": 3542,
      "ride": 3543,
      "sometimes": 3544,
      "liked": 3545,
      "thinks": 3546,
      "amed": 3547,
      "risque": 3548,
      "selves": 3549,
      "shot": 3550,
      "ross": 3551,
      "honest": 3552,
      "durant": 3553,
      "funny": 3554,
      "charge": 3555,
      "Main": 3556,
      "Suis": 3557,
      "owe": 3558,
      "vest": 3559,
      "warm": 3560,
      "quille": 3561,
      "fortable": 3562,
      "admit": 3563,
      "monter": 3564,
      "extr": 3565,
      "u00e9cis": 3566,
      "maines": 3567,
      "couple": 3568,
      "u00e9phon": 3569,
      "sembles": 3570,
      "aimez": 3571,
      "ountain": 3572,
      "supporter": 3573,
      "effe": 3574,
      "magaz": 3575,
      "Viens": 3576,
      "dente": 3577,
      "odu": 3578,
      "arch": 3579,
      "chaise": 3580,
      "menti": 3581,
      "cong": 3582,
      "force": 3583,
      "cancer": 3584,
      "fool": 3585,
      "marr": 3586,
      "risk": 3587,
      "Appe": 3588,
      "Af": 3589,
      "cieux": 3590,
      "mb": 3591,
      "smar": 3592,
      "uncle": 3593,
      "forts": 3594,
      "fection": 3595,
      "cks": 3596,
      "facilement": 3597,
      "u00e2ch": 3598,
      "semblait": 3599,
      "actuelle": 3600,
      "conscience": 3601,
      "horrible": 3602,
      "bord": 3603,
      "cts": 3604,
      "fre": 3605,
      "loi": 3606,
      "heur": 3607,
      "mention": 3608,
      "condition": 3609,
      "urg": 3610,
      "u00e2che": 3611,
      "telling": 3612,
      "u00e9trang": 3613,
      "jeunes": 3614,
      "honte": 3615,
      "Voudriez": 3616,
      "opened": 3617,
      "actually": 3618,
      "universit": 3619,
      "apologi": 3620,
      "cous": 3621,
      "nage": 3622,
      "rac": 3623,
      "semaines": 3624,
      "contente": 3625,
      "prot": 3626,
      "math": 3627,
      "discours": 3628,
      "crains": 3629,
      "promets": 3630,
      "Regardez": 3631,
      "impatient": 3632,
      "Ave": 3633,
      "ues": 3634,
      "rep": 3635,
      "forward": 3636,
      "moiti": 3637,
      "propres": 3638,
      "permission": 3639,
      "position": 3640,
      "camera": 3641,
      "continuer": 3642,
      "sounds": 3643,
      "Avec": 3644,
      "York": 3645,
      "ship": 3646,
      "tie": 3647,
      "u00e9conom": 3648,
      "inten": 3649,
      "quant": 3650,
      "aged": 3651,
      "address": 3652,
      "ferait": 3653,
      "course": 3654,
      "portun": 3655,
      "Quels": 3656,
      "semblez": 3657,
      "happens": 3658,
      "promen": 3659,
      "loved": 3660,
      "u00e9rifier": 3661,
      "refuse": 3662,
      "roman": 3663,
      "introdu": 3664,
      "compagn": 3665,
      "rase": 3666,
      "u00e9vu": 3667,
      "deli": 3668,
      "means": 3669,
      "u00eats": 3670,
      "amb": 3671,
      "survi": 3672,
      "dispar": 3673,
      "souvenir": 3674,
      "stor": 3675,
      "played": 3676,
      "vingt": 3677,
      "native": 3678,
      "difference": 3679,
      "excuse": 3680,
      "doig": 3681,
      "Conn": 3682,
      "hes": 3683,
      "nav": 3684,
      "ods": 3685,
      "scre": 3686,
      "ene": 3687,
      "u00e9o": 3688,
      "lies": 3689,
      "docu": 3690,
      "allais": 3691,
      "apple": 3692,
      "abilit": 3693,
      "waste": 3694,
      "frapp": 3695,
      "grat": 3696,
      "marier": 3697,
      "Not": 3698,
      "puiss": 3699,
      "u00e9gl": 3700,
      "partici": 3701,
      "smoke": 3702,
      "pauvre": 3703,
      "rarement": 3704,
      "embrass": 3705,
      "zoo": 3706,
      "Maintenant": 3707,
      "borrow": 3708,
      "ctement": 3709,
      "mountain": 3710,
      "u00each": 3711,
      "u00e9lev": 3712,
      "debout": 3713,
      "seat": 3714,
      "sever": 3715,
      "enter": 3716,
      "ility": 3717,
      "opportun": 3718,
      "nervous": 3719,
      "price": 3720,
      "during": 3721,
      "sleeping": 3722,
      "u00e9roport": 3723,
      "Sunday": 3724,
      "golf": 3725,
      "Try": 3726,
      "Venez": 3727,
      "pis": 3728,
      "u00eav": 3729,
      "meu": 3730,
      "dipl": 3731,
      "across": 3732,
      "voyez": 3733,
      "permis": 3734,
      "grave": 3735,
      "laissez": 3736,
      "newsp": 3737,
      "aimait": 3738,
      "utilis": 3739,
      "listening": 3740,
      "keys": 3741,
      "u00e9sident": 3742,
      "pomme": 3743,
      "consider": 3744,
      "medicine": 3745,
      "lawyer": 3746,
      "telephone": 3747,
      "pointed": 3748,
      "nettoyer": 3749,
      "innocent": 3750,
      "rhume": 3751,
      "cla": 3752,
      "rup": 3753,
      "wai": 3754,
      "ane": 3755,
      "invi": 3756,
      "past": 3757,
      "apparti": 3758,
      "acle": 3759,
      "pleur": 3760,
      "vacation": 3761,
      "000": 3762,
      "spoke": 3763,
      "gauche": 3764,
      "Connais": 3765,
      "bain": 3766,
      "ailles": 3767,
      "sept": 3768,
      "dies": 3769,
      "stairs": 3770,
      "u00fbl": 3771,
      "montr": 3772,
      "hose": 3773,
      "vious": 3774,
      "blanc": 3775,
      "somebody": 3776,
      "ferme": 3777,
      "spee": 3778,
      "solve": 3779,
      "Quiconque": 3780,
      "Ess": 3781,
      "importance": 3782,
      "given": 3783,
      "habituellement": 3784,
      "augment": 3785,
      "After": 3786,
      "waited": 3787,
      "invited": 3788,
      "Hier": 3789,
      "apart": 3790,
      "isse": 3791,
      "incroy": 3792,
      "lequel": 3793,
      "ilt": 3794,
      "apper": 3795,
      "ford": 3796,
      "ador": 3797,
      "couteau": 3798,
      "garde": 3799,
      "vouliez": 3800,
      "cated": 3801,
      "u00e9pondu": 3802,
      "color": 3803,
      "convince": 3804,
      "u00e9ussir": 3805,
      "promised": 3806,
      "reconnaissant": 3807,
      "fass": 3808,
      "huit": 3809,
      "jal": 3810,
      "jol": 3811,
      "u00e9able": 3812,
      "lake": 3813,
      "ief": 3814,
      "vivent": 3815,
      "affic": 3816,
      "Quoi": 3817,
      "instru": 3818,
      "u00e9gal": 3819,
      "u00e9cider": 3820,
      "drinking": 3821,
      "docteur": 3822,
      "princi": 3823,
      "receive": 3824,
      "sandwi": 3825,
      "Essaie": 3826,
      "Those": 3827,
      "cab": 3828,
      "crow": 3829,
      "ffer": 3830,
      "pit": 3831,
      "oux": 3832,
      "aig": 3833,
      "inside": 3834,
      "sudden": 3835,
      "tune": 3836,
      "avenir": 3837,
      "regre": 3838,
      "importante": 3839,
      "showed": 3840,
      "pictures": 3841,
      "sourire": 3842,
      "explos": 3843,
      "ba": 3844,
      "eut": 3845,
      "kni": 3846,
      "yons": 3847,
      "revenu": 3848,
      "lax": 3849,
      "suici": 3850,
      "u00e8ves": 3851,
      "rice": 3852,
      "site": 3853,
      "abroad": 3854,
      "covered": 3855,
      "vid": 3856,
      "ouvons": 3857,
      "merveille": 3858,
      "u00e9ralement": 3859,
      "pleut": 3860,
      "u00e2te": 3861,
      "douche": 3862,
      "produire": 3863,
      "girls": 3864,
      "convaincu": 3865,
      "groupe": 3866,
      "club": 3867,
      "ennuis": 3868,
      "storm": 3869,
      "speech": 3870,
      "Bien": 3871,
      "dam": 3872,
      "gie": 3873,
      "sc": 3874,
      "issu": 3875,
      "meat": 3876,
      "convers": 3877,
      "canap": 3878,
      "crav": 3879,
      "vieil": 3880,
      "obtenir": 3881,
      "entretenir": 3882,
      "volont": 3883,
      "profess": 3884,
      "painting": 3885,
      "boys": 3886,
      "horse": 3887,
      "sentiment": 3888,
      "abandonn": 3889,
      "lentement": 3890,
      "million": 3891,
      "destin": 3892,
      "tranquille": 3893,
      "several": 3894,
      "Thom": 3895,
      "cue": 3896,
      "eff": 3897,
      "fave": 3898,
      "sache": 3899,
      "tat": 3900,
      "noy": 3901,
      "belong": 3902,
      "mentir": 3903,
      "cigare": 3904,
      "blue": 3905,
      "worse": 3906,
      "Aujourd": 3907,
      "sauv": 3908,
      "Aimer": 3909,
      "piece": 3910,
      "plaisant": 3911,
      "heavy": 3912,
      "Contin": 3913,
      "Thomas": 3914,
      "Cho": 3915,
      "send": 3916,
      "tau": 3917,
      "veu": 3918,
      "alent": 3919,
      "verrou": 3920,
      "partout": 3921,
      "parole": 3922,
      "dure": 3923,
      "uel": 3924,
      "movies": 3925,
      "nerveux": 3926,
      "afford": 3927,
      "ouverte": 3928,
      "empty": 3929,
      "driving": 3930,
      "walking": 3931,
      "Any": 3932,
      "u00c9tats": 3933,
      "faveur": 3934,
      "det": 3935,
      "aisse": 3936,
      "traffic": 3937,
      "ieuse": 3938,
      "u00e8bre": 3939,
      "rier": 3940,
      "trem": 3941,
      "frais": 3942,
      "ivement": 3943,
      "happening": 3944,
      "contrari": 3945,
      "morce": 3946,
      "Voudrais": 3947,
      "driver": 3948,
      "blague": 3949,
      "cuisiner": 3950,
      "animals": 3951,
      "phrase": 3952,
      "silen": 3953,
      "discussion": 3954,
      "excellent": 3955,
      "copine": 3956,
      "impliqu": 3957,
      "Vas": 3958,
      "either": 3959,
      "ize": 3960,
      "kis": 3961,
      "morte": 3962,
      "smi": 3963,
      "acun": 3964,
      "immedi": 3965,
      "Both": 3966,
      "gagne": 3967,
      "maladie": 3968,
      "cadeaux": 3969,
      "television": 3970,
      "u00e9prim": 3971,
      "remercier": 3972,
      "mettez": 3973,
      "conversation": 3974,
      "Dieu": 3975,
      "aded": 3976,
      "alive": 3977,
      "cuit": 3978,
      "gouver": 3979,
      "senten": 3980,
      "aill": 3981,
      "u00e9po": 3982,
      "inj": 3983,
      "inture": 3984,
      "opt": 3985,
      "Canadi": 3986,
      "glace": 3987,
      "fallu": 3988,
      "women": 3989,
      "population": 3990,
      "sympa": 3991,
      "bouteille": 3992,
      "market": 3993,
      "cravate": 3994,
      "Mets": 3995,
      "Pas": 3996,
      "Tes": 3997,
      "eye": 3998,
      "idio": 3999,
      "invest": 4000,
      "thre": 4001,
      "orig": 4002,
      "bey": 4003,
      "allowed": 4004,
      "exer": 4005,
      "disput": 4006,
      "cru": 4007,
      "cray": 4008,
      "stuff": 4009,
      "oise": 4010,
      "viennent": 4011,
      "cute": 4012,
      "raining": 4013,
      "ligne": 4014,
      "talent": 4015,
      "montagne": 4016,
      "travel": 4017,
      "America": 4018,
      "embrasser": 4019,
      "jolie": 4020,
      "mie": 4021,
      "mail": 4022,
      "sout": 4023,
      "u00e9vi": 4024,
      "ists": 4025,
      "suspect": 4026,
      "rid": 4027,
      "ridi": 4028,
      "hood": 4029,
      "moved": 4030,
      "proc": 4031,
      "seront": 4032,
      "shut": 4033,
      "direction": 4034,
      "portait": 4035,
      "suivi": 4036,
      "shower": 4037,
      "certainement": 4038,
      "incroyable": 4039,
      "Li": 4040,
      "caus": 4041,
      "ican": 4042,
      "pont": 4043,
      "yen": 4044,
      "reuse": 4045,
      "lam": 4046,
      "trai": 4047,
      "also": 4048,
      "para": 4049,
      "u00e9test": 4050,
      "allu": 4051,
      "agre": 4052,
      "courses": 4053,
      "comporte": 4054,
      "corps": 4055,
      "viendrai": 4056,
      "stri": 4057,
      "staying": 4058,
      "u00e9ric": 4059,
      "chanceux": 4060,
      "profond": 4061,
      "u00e9rieusement": 4062,
      "Something": 4063,
      "fault": 4064,
      "prudente": 4065,
      "silence": 4066,
      "voie": 4067,
      "crying": 4068,
      "Peu": 4069,
      "Vos": 4070,
      "ms": 4071,
      "mille": 4072,
      "u00e9lectr": 4073,
      "anche": 4074,
      "incre": 4075,
      "assur": 4076,
      "laver": 4077,
      "lled": 4078,
      "parles": 4079,
      "u00e9tage": 4080,
      "songe": 4081,
      "pensait": 4082,
      "web": 4083,
      "roses": 4084,
      "sale": 4085,
      "disent": 4086,
      "ettez": 4087,
      "hardly": 4088,
      "easily": 4089,
      "u00eemes": 4090,
      "endormi": 4091,
      "abandonner": 4092,
      "u00e9rerais": 4093,
      "14": 4094,
      "cise": 4095,
      "cteur": 4096,
      "kil": 4097,
      "por": 4098,
      "wind": 4099,
      "revenir": 4100,
      "onde": 4101,
      "thous": 4102,
      "ours": 4103,
      "chef": 4104,
      "fiche": 4105,
      "dras": 4106,
      "autom": 4107,
      "appell": 4108,
      "essaye": 4109,
      "seuls": 4110,
      "Unis": 4111,
      "annul": 4112,
      "humeur": 4113,
      "sky": 4114,
      "feuille": 4115,
      "hundre": 4116,
      "langues": 4117,
      "pause": 4118,
      "joke": 4119,
      "choisir": 4120,
      "possibilit": 4121,
      "embarrass": 4122,
      "gift": 4123,
      "France": 4124,
      "knife": 4125,
      "taught": 4126,
      "ahead": 4127,
      "cit": 4128,
      "ham": 4129,
      "twi": 4130,
      "uer": 4131,
      "reali": 4132,
      "u00e9ma": 4133,
      "admi": 4134,
      "bris": 4135,
      "u00f4tre": 4136,
      "akes": 4137,
      "ics": 4138,
      "aurai": 4139,
      "cats": 4140,
      "carefully": 4141,
      "cule": 4142,
      "terminer": 4143,
      "dirai": 4144,
      "oubliez": 4145,
      "experience": 4146,
      "figure": 4147,
      "eggs": 4148,
      "lent": 4149,
      "oper": 4150,
      "tons": 4151,
      "u00e9moi": 4152,
      "throw": 4153,
      "trac": 4154,
      "common": 4155,
      "voit": 4156,
      "mide": 4157,
      "emmen": 4158,
      "pleine": 4159,
      "obtenu": 4160,
      "portez": 4161,
      "planning": 4162,
      "foreign": 4163,
      "plays": 4164,
      "earlier": 4165,
      "handle": 4166,
      "cuisin": 4167,
      "parfaitement": 4168,
      "explosion": 4169,
      "13": 4170,
      "Sont": 4171,
      "gal": 4172,
      "muse": 4173,
      "sli": 4174,
      "ends": 4175,
      "till": 4176,
      "trees": 4177,
      "boat": 4178,
      "ortez": 4179,
      "cartes": 4180,
      "carry": 4181,
      "lettes": 4182,
      "seeing": 4183,
      "special": 4184,
      "itude": 4185,
      "control": 4186,
      "truc": 4187,
      "conduit": 4188,
      "savent": 4189,
      "doubt": 4190,
      "slept": 4191,
      "Continue": 4192,
      "Pouvons": 4193,
      "fing": 4194,
      "mad": 4195,
      "octo": 4196,
      "vus": 4197,
      "repos": 4198,
      "envers": 4199,
      "quin": 4200,
      "forte": 4201,
      "lop": 4202,
      "voler": 4203,
      "lyc": 4204,
      "venait": 4205,
      "manquer": 4206,
      "built": 4207,
      "corde": 4208,
      "faisais": 4209,
      "grandfather": 4210,
      "promesse": 4211,
      "winter": 4212,
      "sitting": 4213,
      "wonderful": 4214,
      "harder": 4215,
      "succeed": 4216,
      "immediately": 4217,
      "kiss": 4218,
      "mage": 4219,
      "recommand": 4220,
      "u00e9vois": 4221,
      "istes": 4222,
      "though": 4223,
      "held": 4224,
      "aura": 4225,
      "sugar": 4226,
      "respe": 4227,
      "power": 4228,
      "u00e9ellement": 4229,
      "servi": 4230,
      "u00e9cl": 4231,
      "u00e9rons": 4232,
      "u00e9puis": 4233,
      "airport": 4234,
      "garage": 4235,
      "Chin": 4236,
      "grands": 4237,
      "jeter": 4238,
      "invitation": 4239,
      "ennemi": 4240,
      "animal": 4241,
      "moyens": 4242,
      "American": 4243,
      "organis": 4244,
      "appartement": 4245,
      "neighbor": 4246,
      "concentr": 4247,
      "u00e9poque": 4248,
      "twice": 4249,
      "Cro": 4250,
      "ror": 4251,
      "vint": 4252,
      "u00eames": 4253,
      "recherche": 4254,
      "u00e9rez": 4255,
      "asking": 4256,
      "passed": 4257,
      "lable": 4258,
      "pratique": 4259,
      "verrai": 4260,
      "tiens": 4261,
      "gover": 4262,
      "bother": 4263,
      "quelconque": 4264,
      "imit": 4265,
      "visi": 4266,
      "fail": 4267,
      "cents": 4268,
      "pourriez": 4269,
      "trice": 4270,
      "crimin": 4271,
      "bouton": 4272,
      "u00e9coute": 4273,
      "expliqu": 4274,
      "balle": 4275,
      "fruits": 4276,
      "Stay": 4277,
      "Should": 4278,
      "bottle": 4279,
      "chouette": 4280,
      "smart": 4281,
      "promenade": 4282,
      "regrette": 4283,
      "Fu": 4284,
      "retir": 4285,
      "relax": 4286,
      "enfin": 4287,
      "arbres": 4288,
      "seven": 4289,
      "diri": 4290,
      "pars": 4291,
      "u00eatres": 4292,
      "urch": 4293,
      "weir": 4294,
      "board": 4295,
      "ground": 4296,
      "drank": 4297,
      "u00e9ration": 4298,
      "u00e9ranger": 4299,
      "bread": 4300,
      "preten": 4301,
      "heureuses": 4302,
      "pace": 4303,
      "oiseau": 4304,
      "itures": 4305,
      "connaissance": 4306,
      "clair": 4307,
      "arrivera": 4308,
      "lights": 4309,
      "satisfied": 4310,
      "fishing": 4311,
      "mienne": 4312,
      "Essayez": 4313,
      "Garde": 4314,
      "disappointed": 4315,
      "appartient": 4316,
      "sandwich": 4317,
      "octobre": 4318,
      "kitch": 4319,
      "lour": 4320,
      "pant": 4321,
      "pir": 4322,
      "vase": 4323,
      "u00e9ren": 4324,
      "ome": 4325,
      "nel": 4326,
      "apport": 4327,
      "comfortable": 4328,
      "locked": 4329,
      "Were": 4330,
      "droite": 4331,
      "view": 4332,
      "prepare": 4333,
      "auras": 4334,
      "venues": 4335,
      "calm": 4336,
      "patience": 4337,
      "sauf": 4338,
      "Aimez": 4339,
      "months": 4340,
      "popular": 4341,
      "u00e9teindre": 4342,
      "college": 4343,
      "imagination": 4344,
      "brouill": 4345,
      "novel": 4346,
      "apologize": 4347,
      "Jack": 4348,
      "dan": 4349,
      "gest": 4350,
      "ile": 4351,
      "oli": 4352,
      "sion": 4353,
      "vation": 4354,
      "recent": 4355,
      "u00e9to": 4356,
      "invent": 4357,
      "veget": 4358,
      "stick": 4359,
      "allow": 4360,
      "aint": 4361,
      "pends": 4362,
      "serve": 4363,
      "mandez": 4364,
      "prendrai": 4365,
      "u00eamement": 4366,
      "u00e9cial": 4367,
      "claire": 4368,
      "custom": 4369,
      "singing": 4370,
      "nulle": 4371,
      "Aimes": 4372,
      "tickets": 4373,
      "leaves": 4374,
      "conseilla": 4375,
      "assurer": 4376,
      "actuellement": 4377,
      "profession": 4378,
      "kitchen": 4379,
      "Dep": 4380,
      "Most": 4381,
      "fum": 4382,
      "han": 4383,
      "lend": 4384,
      "u00e9mo": 4385,
      "inquiet": 4386,
      "simil": 4387,
      "fortune": 4388,
      "mode": 4389,
      "couver": 4390,
      "extre": 4391,
      "efforts": 4392,
      "valise": 4393,
      "convaincre": 4394,
      "paix": 4395,
      "u00e9glise": 4396,
      "Even": 4397,
      "For": 4398,
      "Uni": 4399,
      "dressed": 4400,
      "fres": 4401,
      "fro": 4402,
      "iers": 4403,
      "olog": 4404,
      "deep": 4405,
      "sea": 4406,
      "itive": 4407,
      "church": 4408,
      "sight": 4409,
      "sident": 4410,
      "vote": 4411,
      "faits": 4412,
      "herself": 4413,
      "impro": 4414,
      "ached": 4415,
      "studied": 4416,
      "u00fbres": 4417,
      "bum": 4418,
      "seemed": 4419,
      "portable": 4420,
      "Isn": 4421,
      "croit": 4422,
      "watched": 4423,
      "fortun": 4424,
      "magni": 4425,
      "examin": 4426,
      "regarda": 4427,
      "Faisons": 4428,
      "tromp": 4429,
      "politique": 4430,
      "Certaines": 4431,
      "ravi": 4432,
      "chocolat": 4433,
      "acquis": 4434,
      "newspaper": 4435,
      "gouvernement": 4436,
      "hundred": 4437,
      "Depuis": 4438,
      "dut": 4439,
      "dort": 4440,
      "oul": 4441,
      "u00e9dit": 4442,
      "posez": 4443,
      "permettre": 4444,
      "prendra": 4445,
      "u00e9ra": 4446,
      "cket": 4447,
      "soucie": 4448,
      "ounded": 4449,
      "u0153urs": 4450,
      "apporter": 4451,
      "interrom": 4452,
      "blame": 4453,
      "younger": 4454,
      "choisi": 4455,
      "Certains": 4456,
      "magazine": 4457,
      "Aide": 4458,
      "Octo": 4459,
      "Ret": 4460,
      "dle": 4461,
      "faux": 4462,
      "rang": 4463,
      "spi": 4464,
      "oui": 4465,
      "u00e9pend": 4466,
      "devrai": 4467,
      "orange": 4468,
      "comprend": 4469,
      "acter": 4470,
      "voitures": 4471,
      "couch": 4472,
      "couper": 4473,
      "feed": 4474,
      "serons": 4475,
      "ideas": 4476,
      "failed": 4477,
      "painted": 4478,
      "donnerai": 4479,
      "fallait": 4480,
      "excuser": 4481,
      "beginning": 4482,
      "Attends": 4483,
      "u00e9gumes": 4484,
      "silencieux": 4485,
      "extreme": 4486,
      "Aren": 4487,
      "Fin": 4488,
      "Su": 4489,
      "Sur": 4490,
      "Tur": 4491,
      "bis": 4492,
      "lan": 4493,
      "wake": 4494,
      "remettre": 4495,
      "u00e9or": 4496,
      "argu": 4497,
      "entend": 4498,
      "cell": 4499,
      "celles": 4500,
      "oie": 4501,
      "peint": 4502,
      "abs": 4503,
      "accro": 4504,
      "dule": 4505,
      "perd": 4506,
      "merci": 4507,
      "toile": 4508,
      "demandais": 4509,
      "Chaque": 4510,
      "seules": 4511,
      "weeks": 4512,
      "fasses": 4513,
      "trucs": 4514,
      "oublier": 4515,
      "plaindre": 4516,
      "Paris": 4517,
      "sortie": 4518,
      "aware": 4519,
      "blood": 4520,
      "Today": 4521,
      "traverser": 4522,
      "Al": 4523,
      "Esp": 4524,
      "requi": 4525,
      "lead": 4526,
      "appu": 4527,
      "commit": 4528,
      "abord": 4529,
      "tim": 4530,
      "holi": 4531,
      "cot": 4532,
      "perte": 4533,
      "notes": 4534,
      "bike": 4535,
      "nouveaux": 4536,
      "gues": 4537,
      "suppl": 4538,
      "habill": 4539,
      "devait": 4540,
      "capit": 4541,
      "attentivement": 4542,
      "usual": 4543,
      "correctement": 4544,
      "u00e9cemment": 4545,
      "circul": 4546,
      "enseigner": 4547,
      "u00e9dicament": 4548,
      "morceau": 4549,
      "museum": 4550,
      "weird": 4551,
      "October": 4552,
      "Has": 4553,
      "afin": 4554,
      "bare": 4555,
      "bers": 4556,
      "cui": 4557,
      "retraite": 4558,
      "ensuite": 4559,
      "selle": 4560,
      "enty": 4561,
      "meant": 4562,
      "lap": 4563,
      "beaut": 4564,
      "apples": 4565,
      "plenty": 4566,
      "fif": 4567,
      "anywhere": 4568,
      "understood": 4569,
      "pourrions": 4570,
      "u00c9cou": 4571,
      "gener": 4572,
      "u00e9couvert": 4573,
      "explication": 4574,
      "compagnie": 4575,
      "injured": 4576,
      "crayon": 4577,
      "Jou": 4578,
      "Since": 4579,
      "ghed": 4580,
      "phy": 4581,
      "pack": 4582,
      "u00e9mar": 4583,
      "thor": 4584,
      "chin": 4585,
      "lock": 4586,
      "opti": 4587,
      "cris": 4588,
      "obvious": 4589,
      "soud": 4590,
      "mensonge": 4591,
      "prisonni": 4592,
      "decide": 4593,
      "cooking": 4594,
      "croyais": 4595,
      "u00e9alis": 4596,
      "u00e9checs": 4597,
      "absolument": 4598,
      "instituteur": 4599,
      "kissed": 4600,
      "Jackson": 4601,
      "Gr": 4602,
      "Mettez": 4603,
      "ident": 4604,
      "lied": 4605,
      "pal": 4606,
      "sw": 4607,
      "sin": 4608,
      "sof": 4609,
      "sche": 4610,
      "ule": 4611,
      "memor": 4612,
      "unique": 4613,
      "ustr": 4614,
      "riz": 4615,
      "lots": 4616,
      "justi": 4617,
      "whatever": 4618,
      "marry": 4619,
      "soupe": 4620,
      "stolen": 4621,
      "faite": 4622,
      "clus": 4623,
      "cloche": 4624,
      "tribu": 4625,
      "u00e9ressante": 4626,
      "signe": 4627,
      "charg": 4628,
      "ordinaire": 4629,
      "enjoyed": 4630,
      "printemps": 4631,
      "Attendez": 4632,
      "particulier": 4633,
      "teeth": 4634,
      "Sor": 4635,
      "fact": 4636,
      "gni": 4637,
      "pair": 4638,
      "spr": 4639,
      "return": 4640,
      "invol": 4641,
      "lav": 4642,
      "abri": 4643,
      "hates": 4644,
      "moon": 4645,
      "history": 4646,
      "candid": 4647,
      "canadi": 4648,
      "fired": 4649,
      "gran": 4650,
      "coupable": 4651,
      "nerve": 4652,
      "pull": 4653,
      "u00e9rir": 4654,
      "u00fbrs": 4655,
      "wedding": 4656,
      "bridge": 4657,
      "u00e8gle": 4658,
      "figured": 4659,
      "doivent": 4660,
      "cards": 4661,
      "ashamed": 4662,
      "u00eaves": 4663,
      "apartment": 4664,
      "sentence": 4665,
      "govern": 4666,
      "extremely": 4667,
      "flic": 4668,
      "ior": 4669,
      "jok": 4670,
      "pil": 4671,
      "pill": 4672,
      "engag": 4673,
      "devient": 4674,
      "ushed": 4675,
      "pez": 4676,
      "limit": 4677,
      "sim": 4678,
      "penc": 4679,
      "explan": 4680,
      "ards": 4681,
      "pier": 4682,
      "partis": 4683,
      "couru": 4684,
      "tries": 4685,
      "asket": 4686,
      "parlent": 4687,
      "morts": 4688,
      "voisins": 4689,
      "refused": 4690,
      "boyfriend": 4691,
      "soient": 4692,
      "u00e9pouser": 4693,
      "slowly": 4694,
      "oiseaux": 4695,
      "optimis": 4696,
      "Alors": 4697,
      "Ser": 4698,
      "flat": 4699,
      "gui": 4700,
      "mous": 4701,
      "obey": 4702,
      "paire": 4703,
      "sante": 4704,
      "ended": 4705,
      "u00e9fi": 4706,
      "tech": 4707,
      "lag": 4708,
      "aurez": 4709,
      "dirais": 4710,
      "u00e9tat": 4711,
      "conne": 4712,
      "tenait": 4713,
      "ateurs": 4714,
      "jambe": 4715,
      "famili": 4716,
      "essaya": 4717,
      "Whose": 4718,
      "photograp": 4719,
      "rains": 4720,
      "grossi": 4721,
      "cookies": 4722,
      "u00e9termin": 4723,
      "u00e9nergie": 4724,
      "u00e9barrasser": 4725,
      "issue": 4726,
      "Acc": 4727,
      "Bring": 4728,
      "Wi": 4729,
      "basket": 4730,
      "ati": 4731,
      "iter": 4732,
      "ster": 4733,
      "confection": 4734,
      "appoint": 4735,
      "acit": 4736,
      "hide": 4737,
      "choqu": 4738,
      "choose": 4739,
      "bow": 4740,
      "breath": 4741,
      "u00e9pau": 4742,
      "endie": 4743,
      "u00fbmes": 4744,
      "assister": 4745,
      "Child": 4746,
      "feels": 4747,
      "chaleur": 4748,
      "learning": 4749,
      "consac": 4750,
      "imaginer": 4751,
      "u00e9couv": 4752,
      "loud": 4753,
      "incendie": 4754,
      "voice": 4755,
      "enseigne": 4756,
      "persuad": 4757,
      "billet": 4758,
      "enemy": 4759,
      "agreed": 4760,
      "acquisition": 4761,
      "government": 4762,
      "100": 4763,
      "bom": 4764,
      "cis": 4765,
      "refaire": 4766,
      "ences": 4767,
      "ased": 4768,
      "ordered": 4769,
      "antes": 4770,
      "peace": 4771,
      "rencontre": 4772,
      "amen": 4773,
      "commis": 4774,
      "acked": 4775,
      "rose": 4776,
      "addition": 4777,
      "costu": 4778,
      "mood": 4779,
      "maj": 4780,
      "serr": 4781,
      "exerci": 4782,
      "vrais": 4783,
      "vraie": 4784,
      "Dois": 4785,
      "wered": 4786,
      "button": 4787,
      "lettres": 4788,
      "connaissez": 4789,
      "oyons": 4790,
      "changes": 4791,
      "camion": 4792,
      "giving": 4793,
      "larmes": 4794,
      "dirty": 4795,
      "bird": 4796,
      "conscient": 4797,
      "laughed": 4798,
      "envoyer": 4799,
      "compliqu": 4800,
      "collection": 4801,
      "panne": 4802,
      "adul": 4803,
      "recogni": 4804,
      "protect": 4805,
      "urgence": 4806,
      "disparu": 4807,
      "received": 4808,
      "Children": 4809,
      "Wait": 4810,
      "iment": 4811,
      "tap": 4812,
      "enqu": 4813,
      "alle": 4814,
      "accompli": 4815,
      "froi": 4816,
      "sombre": 4817,
      "missing": 4818,
      "soldi": 4819,
      "cacher": 4820,
      "u00e9rite": 4821,
      "effort": 4822,
      "sooner": 4823,
      "chaude": 4824,
      "piscine": 4825,
      "Life": 4826,
      "Eh": 4827,
      "fly": 4828,
      "hang": 4829,
      "infor": 4830,
      "oign": 4831,
      "u00e8vre": 4832,
      "avoid": 4833,
      "nobody": 4834,
      "diag": 4835,
      "doors": 4836,
      "ayons": 4837,
      "ambit": 4838,
      "pensent": 4839,
      "soc": 4840,
      "feet": 4841,
      "u00e9rais": 4842,
      "pique": 4843,
      "hasard": 4844,
      "vaisselle": 4845,
      "u2019il": 4846,
      "nouvel": 4847,
      "cros": 4848,
      "portefeuille": 4849,
      "grandes": 4850,
      "contri": 4851,
      "friendly": 4852,
      "drinks": 4853,
      "brothers": 4854,
      "mauvaises": 4855,
      "banan": 4856,
      "informations": 4857,
      "foule": 4858,
      "responsabilit": 4859,
      "Aucune": 4860,
      "laughing": 4861,
      "rempli": 4862,
      "raconter": 4863,
      "suddenly": 4864,
      "plaisanter": 4865,
      "u00e9moire": 4866,
      "Jus": 4867,
      "Mal": 4868,
      "gam": 4869,
      "jout": 4870,
      "wise": 4871,
      "oncer": 4872,
      "u00e9resse": 4873,
      "toy": 4874,
      "lave": 4875,
      "iel": 4876,
      "u00e8ces": 4877,
      "bear": 4878,
      "rentre": 4879,
      "cious": 4880,
      "ury": 4881,
      "rob": 4882,
      "uite": 4883,
      "fear": 4884,
      "nique": 4885,
      "Quelles": 4886,
      "Never": 4887,
      "yell": 4888,
      "cars": 4889,
      "mente": 4890,
      "gotten": 4891,
      "selon": 4892,
      "u0153u": 4893,
      "vitesse": 4894,
      "wood": 4895,
      "cream": 4896,
      "u00e9nag": 4897,
      "conduis": 4898,
      "u00eene": 4899,
      "salaire": 4900,
      "Voil": 4901,
      "bagages": 4902,
      "chansons": 4903,
      "objecti": 4904,
      "Ouvre": 4905,
      "Excusez": 4906,
      "u00e9sultats": 4907,
      "Appelle": 4908,
      "origin": 4909,
      "devraient": 4910,
      "explanation": 4911,
      "lin": 4912,
      "relat": 4913,
      "resul": 4914,
      "u00e9vis": 4915,
      "demi": 4916,
      "devais": 4917,
      "meal": 4918,
      "ilty": 4919,
      "belles": 4920,
      "allum": 4921,
      "agir": 4922,
      "ghten": 4923,
      "moder": 4924,
      "worst": 4925,
      "emm": 4926,
      "matins": 4927,
      "stole": 4928,
      "guilty": 4929,
      "vues": 4930,
      "derniers": 4931,
      "faill": 4932,
      "connaissait": 4933,
      "standing": 4934,
      "trouvait": 4935,
      "bouche": 4936,
      "personal": 4937,
      "curi": 4938,
      "firm": 4939,
      "green": 4940,
      "human": 4941,
      "starting": 4942,
      "azz": 4943,
      "retourn": 4944,
      "semblent": 4945,
      "sentiments": 4946,
      "brill": 4947,
      "except": 4948,
      "u00e9tendu": 4949,
      "pousser": 4950,
      "u00e9alit": 4951,
      "construit": 4952,
      "effectu": 4953,
      "magnifique": 4954,
      "duty": 4955,
      "circulation": 4956,
      "physi": 4957,
      "Sorry": 4958,
      "costume": 4959,
      "Co": 4960,
      "eight": 4961,
      "ker": 4962,
      "kin": 4963,
      "kno": 4964,
      "uck": 4965,
      "atch": 4966,
      "attir": 4967,
      "tota": 4968,
      "chances": 4969,
      "practi": 4970,
      "liers": 4971,
      "u00e9tails": 4972,
      "u00e7ue": 4973,
      "monn": 4974,
      "moti": 4975,
      "anges": 4976,
      "couvert": 4977,
      "ouvre": 4978,
      "dry": 4979,
      "voudriez": 4980,
      "prises": 4981,
      "gars": 4982,
      "valeur": 4983,
      "helping": 4984,
      "commet": 4985,
      "veste": 4986,
      "support": 4987,
      "gged": 4988,
      "u00e9ritable": 4989,
      "passeport": 4990,
      "juge": 4991,
      "amuser": 4992,
      "languages": 4993,
      "bicyclette": 4994,
      "u00e9teint": 4995,
      "rupt": 4996,
      "verrouill": 4997,
      "Turn": 4998,
      "involved": 4999,
      "Lis": 5000,
      "ji": 5001,
      "map": 5002,
      "rum": 5003,
      "beat": 5004,
      "dict": 5005,
      "aly": 5006,
      "alcool": 5007,
      "riger": 5008,
      "stam": 5009,
      "conclus": 5010,
      "abo": 5011,
      "timide": 5012,
      "iente": 5013,
      "Lequel": 5014,
      "u00e9clar": 5015,
      "upset": 5016,
      "affe": 5017,
      "willing": 5018,
      "crets": 5019,
      "voisin": 5020,
      "proposal": 5021,
      "expecting": 5022,
      "suitcase": 5023,
      "mouth": 5024,
      "Ferme": 5025,
      "recently": 5026,
      "fresh": 5027,
      "biscuit": 5028,
      "schedule": 5029,
      "appointment": 5030,
      "soccer": 5031,
      "50": 5032,
      "Sans": 5033,
      "ivre": 5034,
      "lons": 5035,
      "scar": 5036,
      "quali": 5037,
      "veuilles": 5038,
      "quet": 5039,
      "nose": 5040,
      "amaz": 5041,
      "allong": 5042,
      "cidence": 5043,
      "commande": 5044,
      "agis": 5045,
      "voleur": 5046,
      "prog": 5047,
      "cance": 5048,
      "bleu": 5049,
      "icien": 5050,
      "Commen": 5051,
      "bonheur": 5052,
      "ners": 5053,
      "aking": 5054,
      "acket": 5055,
      "faible": 5056,
      "cular": 5057,
      "policier": 5058,
      "u00e9nor": 5059,
      "truck": 5060,
      "paint": 5061,
      "sauver": 5062,
      "barbe": 5063,
      "explo": 5064,
      "amoureuse": 5065,
      "escape": 5066,
      "engine": 5067,
      "science": 5068,
      "assistance": 5069,
      "noticed": 5070,
      "appellerai": 5071,
      "pantal": 5072,
      "danse": 5073,
      "exercice": 5074,
      "Ger": 5075,
      "Prom": 5076,
      "ape": 5077,
      "ben": 5078,
      "bors": 5079,
      "fis": 5080,
      "gor": 5081,
      "reur": 5082,
      "returned": 5083,
      "reconnu": 5084,
      "u00e9pour": 5085,
      "toit": 5086,
      "u00e8tres": 5087,
      "beur": 5088,
      "dot": 5089,
      "consom": 5090,
      "combat": 5091,
      "rock": 5092,
      "ters": 5093,
      "soyons": 5094,
      "boit": 5095,
      "u00e9sesp": 5096,
      "temper": 5097,
      "saches": 5098,
      "share": 5099,
      "aff": 5100,
      "image": 5101,
      "2013": 5102,
      "tombe": 5103,
      "passion": 5104,
      "eats": 5105,
      "talks": 5106,
      "aurons": 5107,
      "aurions": 5108,
      "offrir": 5109,
      "connaisse": 5110,
      "clin": 5111,
      "u00e9chapper": 5112,
      "capacit": 5113,
      "grew": 5114,
      "single": 5115,
      "meilleurs": 5116,
      "calling": 5117,
      "skier": 5118,
      "boring": 5119,
      "natur": 5120,
      "milieu": 5121,
      "certainly": 5122,
      "u00e9veiller": 5123,
      "presents": 5124,
      "u00e9tendre": 5125,
      "followed": 5126,
      "offert": 5127,
      "japonaise": 5128,
      "chocolate": 5129,
      "marrant": 5130,
      "document": 5131,
      "instructions": 5132,
      "tremble": 5133,
      "thousand": 5134,
      "prepared": 5135,
      "u00e9orie": 5136,
      "Call": 5137,
      "Di": 5138,
      "Day": 5139,
      "Sortez": 5140,
      "cache": 5141,
      "eus": 5142,
      "electr": 5143,
      "fan": 5144,
      "psy": 5145,
      "sn": 5146,
      "sinc": 5147,
      "quar": 5148,
      "atur": 5149,
      "ney": 5150,
      "nelle": 5151,
      "chess": 5152,
      "u00e8le": 5153,
      "bell": 5154,
      "ales": 5155,
      "album": 5156,
      "treat": 5157,
      "ades": 5158,
      "monte": 5159,
      "extra": 5160,
      "file": 5161,
      "vivant": 5162,
      "u00e9rature": 5163,
      "ressent": 5164,
      "paresse": 5165,
      "fume": 5166,
      "u00e9cipit": 5167,
      "clou": 5168,
      "faster": 5169,
      "fascin": 5170,
      "Make": 5171,
      "particular": 5172,
      "u00eele": 5173,
      "sauter": 5174,
      "tourner": 5175,
      "Voyez": 5176,
      "silent": 5177,
      "drop": 5178,
      "growing": 5179,
      "scienti": 5180,
      "concern": 5181,
      "saved": 5182,
      "neighbors": 5183,
      "notice": 5184,
      "responsible": 5185,
      "Montrez": 5186,
      "u00e9viter": 5187,
      "admire": 5188,
      "United": 5189,
      "None": 5190,
      "Show": 5191,
      "Satur": 5192,
      "drow": 5193,
      "econom": 5194,
      "nine": 5195,
      "pne": 5196,
      "roi": 5197,
      "u00e9rente": 5198,
      "infir": 5199,
      "neig": 5200,
      "arrested": 5201,
      "seld": 5202,
      "search": 5203,
      "orit": 5204,
      "lace": 5205,
      "peinture": 5206,
      "aler": 5207,
      "aman": 5208,
      "appren": 5209,
      "resser": 5210,
      "uts": 5211,
      "roof": 5212,
      "pot": 5213,
      "poche": 5214,
      "poem": 5215,
      "bored": 5216,
      "vented": 5217,
      "Leave": 5218,
      "dispon": 5219,
      "pierre": 5220,
      "Nos": 5221,
      "hadn": 5222,
      "u00fbter": 5223,
      "pale": 5224,
      "inste": 5225,
      "assise": 5226,
      "contract": 5227,
      "pressed": 5228,
      "player": 5229,
      "devint": 5230,
      "culture": 5231,
      "parties": 5232,
      "applic": 5233,
      "rule": 5234,
      "countries": 5235,
      "batter": 5236,
      "sales": 5237,
      "visiter": 5238,
      "boisson": 5239,
      "suffit": 5240,
      "spoken": 5241,
      "sympath": 5242,
      "subject": 5243,
      "soldats": 5244,
      "u00e9dicaments": 5245,
      "campagne": 5246,
      "fantas": 5247,
      "navire": 5248,
      "convinced": 5249,
      "fassiez": 5250,
      "visited": 5251,
      "u00e9rentes": 5252,
      "results": 5253,
      "seldom": 5254,
      "Ver": 5255,
      "cter": 5256,
      "ia": 5257,
      "ks": 5258,
      "whis": 5259,
      "zy": 5260,
      "reposer": 5261,
      "u00e9part": 5262,
      "u00e9pens": 5263,
      "inet": 5264,
      "quo": 5265,
      "audi": 5266,
      "uns": 5267,
      "ilier": 5268,
      "behav": 5269,
      "parie": 5270,
      "ties": 5271,
      "aines": 5272,
      "acted": 5273,
      "roy": 5274,
      "admir": 5275,
      "project": 5276,
      "feuilles": 5277,
      "u00e9sente": 5278,
      "blind": 5279,
      "gradu": 5280,
      "u00e9rang": 5281,
      "toucher": 5282,
      "allerg": 5283,
      "haps": 5284,
      "race": 5285,
      "grandmother": 5286,
      "u00e9chapp": 5287,
      "petits": 5288,
      "buying": 5289,
      "heureusement": 5290,
      "semblant": 5291,
      "climb": 5292,
      "fonctionner": 5293,
      "lecture": 5294,
      "dropped": 5295,
      "occupe": 5296,
      "wallet": 5297,
      "dommage": 5298,
      "atteint": 5299,
      "u00e9sultat": 5300,
      "doigt": 5301,
      "vegetables": 5302,
      "monnaie": 5303,
      "Non": 5304,
      "Tou": 5305,
      "bby": 5306,
      "coffre": 5307,
      "gro": 5308,
      "nons": 5309,
      "vait": 5310,
      "vance": 5311,
      "reach": 5312,
      "enve": 5313,
      "u00e9mat": 5314,
      "incapable": 5315,
      "ouses": 5316,
      "andis": 5317,
      "exci": 5318,
      "exag": 5319,
      "vic": 5320,
      "ditions": 5321,
      "nic": 5322,
      "u00e9cor": 5323,
      "drons": 5324,
      "places": 5325,
      "bran": 5326,
      "cruel": 5327,
      "president": 5328,
      "gentle": 5329,
      "menteur": 5330,
      "feelings": 5331,
      "centre": 5332,
      "calcul": 5333,
      "u00e9tro": 5334,
      "Things": 5335,
      "adoles": 5336,
      "effi": 5337,
      "parlait": 5338,
      "parlons": 5339,
      "samedi": 5340,
      "Inter": 5341,
      "keeps": 5342,
      "films": 5343,
      "listened": 5344,
      "loup": 5345,
      "translate": 5346,
      "poison": 5347,
      "dreams": 5348,
      "seriously": 5349,
      "sentez": 5350,
      "washing": 5351,
      "mignon": 5352,
      "merveilleux": 5353,
      "grandi": 5354,
      "pencil": 5355,
      "18": 5356,
      "Fe": 5357,
      "Sors": 5358,
      "squ": 5359,
      "twent": 5360,
      "zen": 5361,
      "requ": 5362,
      "recommen": 5363,
      "island": 5364,
      "insul": 5365,
      "devenue": 5366,
      "u00e8ter": 5367,
      "u00e9tique": 5368,
      "alliez": 5369,
      "conside": 5370,
      "tight": 5371,
      "tienne": 5372,
      "Their": 5373,
      "gold": 5374,
      "coinc": 5375,
      "dessert": 5376,
      "servie": 5377,
      "folle": 5378,
      "sala": 5379,
      "u00e9clat": 5380,
      "toilettes": 5381,
      "jambes": 5382,
      "mater": 5383,
      "tooth": 5384,
      "primer": 5385,
      "Demain": 5386,
      "blesser": 5387,
      "believed": 5388,
      "singer": 5389,
      "huge": 5390,
      "syst": 5391,
      "tourn": 5392,
      "entered": 5393,
      "u00e9nial": 5394,
      "active": 5395,
      "points": 5396,
      "energy": 5397,
      "grimp": 5398,
      "traduire": 5399,
      "disposons": 5400,
      "ambul": 5401,
      "opportunity": 5402,
      "idiote": 5403,
      "infirmi": 5404,
      "considered": 5405,
      "CD": 5406,
      "God": 5407,
      "Lond": 5408,
      "Moi": 5409,
      "Mange": 5410,
      "Tiens": 5411,
      "ajout": 5412,
      "cles": 5413,
      "names": 5414,
      "pti": 5415,
      "phon": 5416,
      "spl": 5417,
      "u00e9le": 5418,
      "u00e9th": 5419,
      "secrets": 5420,
      "peindre": 5421,
      "lique": 5422,
      "alous": 5423,
      "stone": 5424,
      "rendit": 5425,
      "reser": 5426,
      "ressive": 5427,
      "weak": 5428,
      "prox": 5429,
      "ulaire": 5430,
      "disting": 5431,
      "marre": 5432,
      "cherches": 5433,
      "preuve": 5434,
      "stock": 5435,
      "Ask": 5436,
      "viennes": 5437,
      "noms": 5438,
      "personnel": 5439,
      "speaker": 5440,
      "tors": 5441,
      "stranger": 5442,
      "bouger": 5443,
      "profonde": 5444,
      "emporter": 5445,
      "sleepy": 5446,
      "salt": 5447,
      "jump": 5448,
      "certains": 5449,
      "faudra": 5450,
      "fourn": 5451,
      "exception": 5452,
      "appropri": 5453,
      "saviez": 5454,
      "u00e9trangers": 5455,
      "traiter": 5456,
      "university": 5457,
      "healthy": 5458,
      "sports": 5459,
      "accused": 5460,
      "suggestion": 5461,
      "deserve": 5462,
      "cousin": 5463,
      "Chois": 5464,
      "handed": 5465,
      "u00e9marrer": 5466,
      "familiar": 5467,
      "biscuits": 5468,
      "Londres": 5469,
      "Oh": 5470,
      "Sou": 5471,
      "athe": 5472,
      "cand": 5473,
      "dors": 5474,
      "event": 5475,
      "mons": 5476,
      "oc": 5477,
      "paie": 5478,
      "saut": 5479,
      "result": 5480,
      "anx": 5481,
      "trad": 5482,
      "suffer": 5483,
      "prouver": 5484,
      "ieur": 5485,
      "anti": 5486,
      "loge": 5487,
      "posa": 5488,
      "pool": 5489,
      "Hey": 5490,
      "copain": 5491,
      "permet": 5492,
      "exh": 5493,
      "vra": 5494,
      "shy": 5495,
      "bru": 5496,
      "cried": 5497,
      "u00e9pouse": 5498,
      "gez": 5499,
      "laisserai": 5500,
      "gentille": 5501,
      "gentilles": 5502,
      "appeared": 5503,
      "u00e9gime": 5504,
      "caused": 5505,
      "Didn": 5506,
      "Demande": 5507,
      "volun": 5508,
      "filled": 5509,
      "ruin": 5510,
      "draw": 5511,
      "miracle": 5512,
      "bigger": 5513,
      "step": 5514,
      "expert": 5515,
      "indiquer": 5516,
      "video": 5517,
      "violence": 5518,
      "private": 5519,
      "ffeur": 5520,
      "u00e9missionner": 5521,
      "programme": 5522,
      "smile": 5523,
      "pantalon": 5524,
      "\",": 5525,
      "Faire": 5526,
      "Vois": 5527,
      "dus": 5528,
      "gain": 5529,
      "hie": 5530,
      "jau": 5531,
      "ka": 5532,
      "oes": 5533,
      "vons": 5534,
      "reli": 5535,
      "u00e9jour": 5536,
      "lebr": 5537,
      "tears": 5538,
      "entire": 5539,
      "mec": 5540,
      "celebr": 5541,
      "ory": 5542,
      "chacun": 5543,
      "trus": 5544,
      "u00e8tes": 5545,
      "parais": 5546,
      "jealous": 5547,
      "convient": 5548,
      "conditions": 5549,
      "agers": 5550,
      "forced": 5551,
      "answered": 5552,
      "moteur": 5553,
      "tenue": 5554,
      "veniez": 5555,
      "dishes": 5556,
      "u00e9ral": 5557,
      "u00e9rable": 5558,
      "tough": 5559,
      "touche": 5560,
      "dentiste": 5561,
      "enfance": 5562,
      "irez": 5563,
      "rumeur": 5564,
      "changement": 5565,
      "utilise": 5566,
      "writer": 5567,
      "clim": 5568,
      "supermarch": 5569,
      "meurtre": 5570,
      "approche": 5571,
      "pareille": 5572,
      "u00e9libat": 5573,
      "States": 5574,
      "ennuyeux": 5575,
      "rembour": 5576,
      "sweet": 5577,
      "fighting": 5578,
      "complaining": 5579,
      "particip": 5580,
      "Aimeriez": 5581,
      "options": 5582,
      "Canadian": 5583,
      "u00e9couvrir": 5584,
      "Afri": 5585,
      "Terre": 5586,
      "Yesterday": 5587,
      "flight": 5588,
      "maire": 5589,
      "ns": 5590,
      "sors": 5591,
      "yens": 5592,
      "esses": 5593,
      "u00e9ros": 5594,
      "u00e9solu": 5595,
      "influ": 5596,
      "neur": 5597,
      "armes": 5598,
      "aveug": 5599,
      "liqui": 5600,
      "alter": 5601,
      "alco": 5602,
      "rig": 5603,
      "u00e9tonn": 5604,
      "u00eata": 5605,
      "among": 5606,
      "advant": 5607,
      "Hel": 5608,
      "descri": 5609,
      "Celui": 5610,
      "disait": 5611,
      "maisons": 5612,
      "toires": 5613,
      "restes": 5614,
      "u00e2t": 5615,
      "stuck": 5616,
      "connue": 5617,
      "malheureux": 5618,
      "essayez": 5619,
      "contrat": 5620,
      "strai": 5621,
      "battu": 5622,
      "mangent": 5623,
      "Parlez": 5624,
      "tourne": 5625,
      "jume": 5626,
      "souri": 5627,
      "sortit": 5628,
      "stem": 5629,
      "dingue": 5630,
      "windows": 5631,
      "oreilles": 5632,
      "atteindre": 5633,
      "middle": 5634,
      "odeur": 5635,
      "ouvrit": 5636,
      "pleased": 5637,
      "mignonne": 5638,
      "Fermez": 5639,
      "doigts": 5640,
      "puissions": 5641,
      "jaloux": 5642,
      "crowd": 5643,
      "disputer": 5644,
      "assurance": 5645,
      "absence": 5646,
      "spring": 5647,
      "Har": 5648,
      "Sant": 5649,
      "Tenez": 5650,
      "ciles": 5651,
      "iqu": 5652,
      "jazz": 5653,
      "nur": 5654,
      "sse": 5655,
      "shel": 5656,
      "tit": 5657,
      "tally": 5658,
      "taller": 5659,
      "ya": 5660,
      "remis": 5661,
      "retirer": 5662,
      "onc": 5663,
      "inti": 5664,
      "secr": 5665,
      "entier": 5666,
      "mecs": 5667,
      "chick": 5668,
      "lions": 5669,
      "plat": 5670,
      "coop": 5671,
      "proper": 5672,
      "hiding": 5673,
      "fra": 5674,
      "pers": 5675,
      "exemp": 5676,
      "chement": 5677,
      "sommet": 5678,
      "bol": 5679,
      "dront": 5680,
      "shar": 5681,
      "u00f4mes": 5682,
      "impressed": 5683,
      "assit": 5684,
      "assie": 5685,
      "passport": 5686,
      "occur": 5687,
      "difficiles": 5688,
      "voulaient": 5689,
      "resterai": 5690,
      "raisonn": 5691,
      "policeman": 5692,
      "membre": 5693,
      "Sometimes": 5694,
      "Somebody": 5695,
      "horreur": 5696,
      "meaning": 5697,
      "intelligente": 5698,
      "soif": 5699,
      "murder": 5700,
      "projets": 5701,
      "ponctu": 5702,
      "souffre": 5703,
      "cigarette": 5704,
      "emmener": 5705,
      "clairement": 5706,
      "instead": 5707,
      "behavior": 5708,
      "Internet": 5709,
      "proximit": 5710,
      "Bon": 5711,
      "gle": 5712,
      "games": 5713,
      "iz": 5714,
      "laid": 5715,
      "push": 5716,
      "vil": 5717,
      "reached": 5718,
      "u00e9der": 5719,
      "heat": 5720,
      "limi": 5721,
      "amiti": 5722,
      "comprenez": 5723,
      "ague": 5724,
      "account": 5725,
      "local": 5726,
      "mondi": 5727,
      "hid": 5728,
      "serv": 5729,
      "dises": 5730,
      "cercle": 5731,
      "appear": 5732,
      "u2019a": 5733,
      "guest": 5734,
      "u00e9gard": 5735,
      "woke": 5736,
      "regis": 5737,
      "gging": 5738,
      "manges": 5739,
      "u00eetr": 5740,
      "Parfois": 5741,
      "miles": 5742,
      "u00e9cida": 5743,
      "chausse": 5744,
      "nearly": 5745,
      "forgotten": 5746,
      "embau": 5747,
      "explained": 5748,
      "populaire": 5749,
      "complicated": 5750,
      "pouss": 5751,
      "teaching": 5752,
      "tastes": 5753,
      "relations": 5754,
      "earthqu": 5755,
      "veuille": 5756,
      "ridicul": 5757,
      "u00e9clair": 5758,
      "With": 5759,
      "soldiers": 5760,
      "diagno": 5761,
      "Br": 5762,
      "Du": 5763,
      "Passe": 5764,
      "fed": 5765,
      "gren": 5766,
      "ged": 5767,
      "gaz": 5768,
      "sage": 5769,
      "tandis": 5770,
      "wet": 5771,
      "astr": 5772,
      "tex": 5773,
      "totally": 5774,
      "ordre": 5775,
      "aupr": 5776,
      "unlikely": 5777,
      "iling": 5778,
      "u00e8se": 5779,
      "avai": 5780,
      "liar": 5781,
      "riches": 5782,
      "stress": 5783,
      "u00e9tag": 5784,
      "jeux": 5785,
      "consul": 5786,
      "appla": 5787,
      "commer": 5788,
      "abat": 5789,
      "tidi": 5790,
      "accompag": 5791,
      "wears": 5792,
      "poll": 5793,
      "iron": 5794,
      "moqu": 5795,
      "cheap": 5796,
      "vendu": 5797,
      "crise": 5798,
      "improbable": 5799,
      "aiderai": 5800,
      "sentis": 5801,
      "Entre": 5802,
      "cace": 5803,
      "promener": 5804,
      "douce": 5805,
      "double": 5806,
      "u00e9char": 5807,
      "believes": 5808,
      "accidents": 5809,
      "aimons": 5810,
      "picked": 5811,
      "skin": 5812,
      "wondering": 5813,
      "souris": 5814,
      "sisters": 5815,
      "aliments": 5816,
      "ancing": 5817,
      "attitude": 5818,
      "Gardez": 5819,
      "skiing": 5820,
      "concentrer": 5821,
      "absolutely": 5822,
      "delicious": 5823,
      "Connaissez": 5824,
      "comportement": 5825,
      "strict": 5826,
      "realize": 5827,
      "argument": 5828,
      "confectionn": 5829,
      "Malheureusement": 5830,
      "natural": 5831,
      "exemple": 5832,
      "Bu": 5833,
      "Deux": 5834,
      "cend": 5835,
      "da": 5836,
      "ears": 5837,
      "xe": 5838,
      "u00ean": 5839,
      "repe": 5840,
      "record": 5841,
      "relig": 5842,
      "aimais": 5843,
      "thief": 5844,
      "queue": 5845,
      "estom": 5846,
      "estim": 5847,
      "tray": 5848,
      "u00e8che": 5849,
      "conven": 5850,
      "losing": 5851,
      "washed": 5852,
      "rope": 5853,
      "volu": 5854,
      "histoires": 5855,
      "fiers": 5856,
      "victi": 5857,
      "tempor": 5858,
      "u00e9cris": 5859,
      "ician": 5860,
      "brave": 5861,
      "sembla": 5862,
      "objet": 5863,
      "achie": 5864,
      "viendrait": 5865,
      "cross": 5866,
      "paying": 5867,
      "u00e9cier": 5868,
      "u00e9rifi": 5869,
      "ordres": 5870,
      "profit": 5871,
      "capital": 5872,
      "classi": 5873,
      "u00e9rieuse": 5874,
      "garer": 5875,
      "logy": 5876,
      "acceptable": 5877,
      "Descen": 5878,
      "style": 5879,
      "chanteur": 5880,
      "innoc": 5881,
      "souffle": 5882,
      "taste": 5883,
      "ancien": 5884,
      "particuli": 5885,
      "details": 5886,
      "finger": 5887,
      "Fuji": 5888,
      "dirige": 5889,
      "holiday": 5890,
      "totalement": 5891,
      "twenty": 5892,
      "Help": 5893,
      "straight": 5894,
      "Santa": 5895,
      "applau": 5896,
      "Lon": 5897,
      "Voyons": 5898,
      "bly": 5899,
      "caisse": 5900,
      "dad": 5901,
      "emer": 5902,
      "fli": 5903,
      "harm": 5904,
      "jacket": 5905,
      "lone": 5906,
      "nap": 5907,
      "oll": 5908,
      "tin": 5909,
      "u00e9nom": 5910,
      "stat": 5911,
      "tiques": 5912,
      "acting": 5913,
      "onses": 5914,
      "servir": 5915,
      "Leur": 5916,
      "sach": 5917,
      "u00e9cup": 5918,
      "arriva": 5919,
      "u00f4m": 5920,
      "crain": 5921,
      "u00e9ponses": 5922,
      "hypo": 5923,
      "u00e2tre": 5924,
      "butter": 5925,
      "bile": 5926,
      "Asse": 5927,
      "sentait": 5928,
      "wore": 5929,
      "contacter": 5930,
      "bedroom": 5931,
      "easier": 5932,
      "system": 5933,
      "Parle": 5934,
      "valu": 5935,
      "attendait": 5936,
      "signed": 5937,
      "sortes": 5938,
      "prudents": 5939,
      "mangez": 5940,
      "third": 5941,
      "u00e9lior": 5942,
      "signific": 5943,
      "group": 5944,
      "legs": 5945,
      "sweater": 5946,
      "u00e9nerv": 5947,
      "further": 5948,
      "punished": 5949,
      "attaqu": 5950,
      "purpose": 5951,
      "national": 5952,
      "intend": 5953,
      "threat": 5954,
      "Chinese": 5955,
      "timbres": 5956,
      "memory": 5957,
      "quotidi": 5958,
      "u00e9matiques": 5959,
      "excited": 5960,
      "available": 5961,
      "London": 5962,
      "Jam": 5963,
      "Last": 5964,
      "Mais": 5965,
      "Ren": 5966,
      "abe": 5967,
      "dout": 5968,
      "dancing": 5969,
      "glis": 5970,
      "niture": 5971,
      "rons": 5972,
      "wers": 5973,
      "rely": 5974,
      "remin": 5975,
      "leva": 5976,
      "toward": 5977,
      "veau": 5978,
      "veiller": 5979,
      "seau": 5980,
      "theory": 5981,
      "usage": 5982,
      "cient": 5983,
      "ghost": 5984,
      "survenu": 5985,
      "oppos": 5986,
      "manager": 5987,
      "essai": 5988,
      "essence": 5989,
      "arrivent": 5990,
      "u00f4ler": 5991,
      "laissa": 5992,
      "raisons": 5993,
      "obli": 5994,
      "courut": 5995,
      "apped": 5996,
      "passait": 5997,
      "actions": 5998,
      "u00e9chant": 5999,
      "gency": 6000,
      "license": 6001,
      "ignorer": 6002,
      "hearing": 6003,
      "cash": 6004,
      "natif": 6005,
      "suivant": 6006,
      "matters": 6007,
      "steal": 6008,
      "awake": 6009,
      "birds": 6010,
      "u00c9tait": 6011,
      "burned": 6012,
      "costs": 6013,
      "accepted": 6014,
      "oreille": 6015,
      "u00e9chec": 6016,
      "following": 6017,
      "concerned": 6018,
      "divorce": 6019,
      "documents": 6020,
      "investig": 6021,
      "flics": 6022,
      "beurre": 6023,
      "ambulance": 6024,
      "tradition": 6025,
      "Jamais": 6026,
      "Oui": 6027,
      "brow": 6028,
      "gth": 6029,
      "ized": 6030,
      "mai": 6031,
      "raise": 6032,
      "uves": 6033,
      "u00e9lu": 6034,
      "atif": 6035,
      "lazy": 6036,
      "chir": 6037,
      "author": 6038,
      "diam": 6039,
      "parked": 6040,
      "alla": 6041,
      "apprends": 6042,
      "size": 6043,
      "tive": 6044,
      "treize": 6045,
      "adap": 6046,
      "area": 6047,
      "cow": 6048,
      "coutu": 6049,
      "u00f4me": 6050,
      "mistaken": 6051,
      "direct": 6052,
      "workers": 6053,
      "couramment": 6054,
      "bud": 6055,
      "supporte": 6056,
      "u00e9tude": 6057,
      "connaiss": 6058,
      "forever": 6059,
      "journaux": 6060,
      "artiste": 6061,
      "Read": 6062,
      "hurts": 6063,
      "gives": 6064,
      "source": 6065,
      "ailleurs": 6066,
      "songs": 6067,
      "curieux": 6068,
      "client": 6069,
      "poup": 6070,
      "facts": 6071,
      "Good": 6072,
      "activit": 6073,
      "frighten": 6074,
      "See": 6075,
      "disease": 6076,
      "critique": 6077,
      "Appelez": 6078,
      "quantit": 6079,
      "suicide": 6080,
      "fortunately": 6081,
      "u00c9coute": 6082,
      "practice": 6083,
      "Saturday": 6084,
      "gentleman": 6085,
      "16": 6086,
      "Em": 6087,
      "Sel": 6088,
      "Tour": 6089,
      "Tro": 6090,
      "cense": 6091,
      "fal": 6092,
      "gs": 6093,
      "orer": 6094,
      "pin": 6095,
      "pression": 6096,
      "rained": 6097,
      "sap": 6098,
      "scr": 6099,
      "slight": 6100,
      "vard": 6101,
      "relie": 6102,
      "onti": 6103,
      "inutile": 6104,
      "ascense": 6105,
      "arro": 6106,
      "tem": 6107,
      "telles": 6108,
      "oranges": 6109,
      "unhappy": 6110,
      "dirent": 6111,
      "u00e9tab": 6112,
      "u00e9taire": 6113,
      "allions": 6114,
      "conce": 6115,
      "terme": 6116,
      "propri": 6117,
      "hill": 6118,
      "expr": 6119,
      "exige": 6120,
      "ular": 6121,
      "useful": 6122,
      "ferions": 6123,
      "pleure": 6124,
      "cesse": 6125,
      "soulag": 6126,
      "attendrai": 6127,
      "promesses": 6128,
      "travaillent": 6129,
      "capables": 6130,
      "understanding": 6131,
      "proches": 6132,
      "members": 6133,
      "arms": 6134,
      "nourrir": 6135,
      "headache": 6136,
      "joueur": 6137,
      "climat": 6138,
      "conscious": 6139,
      "poissons": 6140,
      "enseignante": 6141,
      "suffisant": 6142,
      "rendue": 6143,
      "refusa": 6144,
      "recevoir": 6145,
      "escaped": 6146,
      "attack": 6147,
      "constru": 6148,
      "assistant": 6149,
      "continued": 6150,
      "haute": 6151,
      "ouvrage": 6152,
      "explications": 6153,
      "volontaire": 6154,
      "Aimerais": 6155,
      "exercise": 6156,
      "Crois": 6157,
      "u00e9paule": 6158,
      "failli": 6159,
      "disponible": 6160,
      "aveugle": 6161,
      "advantage": 6162,
      "raisonnable": 6163,
      "estomac": 6164,
      "Cesse": 6165,
      "From": 6166,
      "Of": 6167,
      "edu": 6168,
      "fous": 6169,
      "jail": 6170,
      "nt": 6171,
      "scol": 6172,
      "tw": 6173,
      "yes": 6174,
      "rejet": 6175,
      "retrouver": 6176,
      "rejoindre": 6177,
      "aitez": 6178,
      "ones": 6179,
      "inde": 6180,
      "delay": 6181,
      "demandez": 6182,
      "meure": 6183,
      "esti": 6184,
      "lady": 6185,
      "chest": 6186,
      "using": 6187,
      "verti": 6188,
      "parvenir": 6189,
      "u00e9tend": 6190,
      "u00e9tail": 6191,
      "urry": 6192,
      "sonn": 6193,
      "agent": 6194,
      "forgive": 6195,
      "loyer": 6196,
      "hoping": 6197,
      "perdit": 6198,
      "knowled": 6199,
      "within": 6200,
      "anyway": 6201,
      "saison": 6202,
      "dish": 6203,
      "drug": 6204,
      "voudrait": 6205,
      "minuit": 6206,
      "pirer": 6207,
      "mises": 6208,
      "travailles": 6209,
      "partager": 6210,
      "dentist": 6211,
      "immeu": 6212,
      "courrier": 6213,
      "happ": 6214,
      "Only": 6215,
      "fromage": 6216,
      "pouviez": 6217,
      "pouvions": 6218,
      "aimeriez": 6219,
      "icit": 6220,
      "racont": 6221,
      "Chacun": 6222,
      "supp": 6223,
      "futur": 6224,
      "u00e9cierais": 6225,
      "credit": 6226,
      "petites": 6227,
      "conduite": 6228,
      "crivez": 6229,
      "confident": 6230,
      "retourne": 6231,
      "judge": 6232,
      "certaines": 6233,
      "letters": 6234,
      "u00c9tiez": 6235,
      "supermarket": 6236,
      "experien": 6237,
      "spectacle": 6238,
      "vivons": 6239,
      "perfectly": 6240,
      "Americans": 6241,
      "descendre": 6242,
      "welcome": 6243,
      "opportunit": 6244,
      "incredi": 6245,
      "quinze": 6246,
      "neighborhood": 6247,
      "pratiquement": 6248,
      "u00e9toiles": 6249,
      "justice": 6250,
      "major": 6251,
      "recognize": 6252,
      "u00e9norme": 6253,
      "electric": 6254,
      "Harvard": 6255,
      "lonely": 6256,
      "Watch": 6257,
      "ares": 6258,
      "fla": 6259,
      "fain": 6260,
      "fleur": 6261,
      "ial": 6262,
      "oil": 6263,
      "spends": 6264,
      "tache": 6265,
      "reviens": 6266,
      "encour": 6267,
      "u00e9journ": 6268,
      "erie": 6269,
      "isme": 6270,
      "isation": 6271,
      "thin": 6272,
      "decor": 6273,
      "determin": 6274,
      "qual": 6275,
      "tered": 6276,
      "text": 6277,
      "total": 6278,
      "section": 6279,
      "mel": 6280,
      "ourselves": 6281,
      "diary": 6282,
      "accent": 6283,
      "forces": 6284,
      "goti": 6285,
      "answers": 6286,
      "durer": 6287,
      "cope": 6288,
      "moque": 6289,
      "mobile": 6290,
      "tenez": 6291,
      "fill": 6292,
      "surv": 6293,
      "forest": 6294,
      "u00e9cras": 6295,
      "upstairs": 6296,
      "managed": 6297,
      "partit": 6298,
      "carried": 6299,
      "obs": 6300,
      "dying": 6301,
      "courte": 6302,
      "bulle": 6303,
      "puisses": 6304,
      "sentais": 6305,
      "sentie": 6306,
      "offens": 6307,
      "prices": 6308,
      "prize": 6309,
      "connaissais": 6310,
      "moral": 6311,
      "Unfortunately": 6312,
      "u00e9chis": 6313,
      "adopt": 6314,
      "membres": 6315,
      "rude": 6316,
      "diet": 6317,
      "picnic": 6318,
      "rompu": 6319,
      "chauffeur": 6320,
      "runs": 6321,
      "banc": 6322,
      "Cessez": 6323,
      "clients": 6324,
      "fonctionn": 6325,
      "spending": 6326,
      "flower": 6327,
      "reconnaissante": 6328,
      "traveling": 6329,
      "abandoned": 6330,
      "remained": 6331,
      "destroy": 6332,
      "souhaiterais": 6333,
      "furniture": 6334,
      "fairly": 6335,
      "gasp": 6336,
      "Oubl": 6337,
      "vendredi": 6338,
      "parfaite": 6339,
      "u00e9quence": 6340,
      "institutrice": 6341,
      "introduce": 6342,
      "ambition": 6343,
      "hesit": 6344,
      "augmentation": 6345,
      "belongs": 6346,
      "cigarettes": 6347,
      "smiled": 6348,
      "threw": 6349,
      "failure": 6350,
      "similar": 6351,
      "barely": 6352,
      "amazing": 6353,
      "temperature": 6354,
      "application": 6355,
      "Toute": 6356,
      "u00e9libataire": 6357,
      "chicken": 6358,
      "Selon": 6359,
      "ascenseur": 6360,
      "Kyo": 6361,
      "Mo": 6362,
      "Pri": 6363,
      "bye": 6364,
      "houses": 6365,
      "lut": 6366,
      "ots": 6367,
      "rate": 6368,
      "round": 6369,
      "rater": 6370,
      "sain": 6371,
      "wit": 6372,
      "xy": 6373,
      "issent": 6374,
      "asun": 6375,
      "quent": 6376,
      "quarti": 6377,
      "teurs": 6378,
      "unes": 6379,
      "moving": 6380,
      "proof": 6381,
      "eding": 6382,
      "frustr": 6383,
      "male": 6384,
      "serp": 6385,
      "exis": 6386,
      "u00e9sence": 6387,
      "u00e9rant": 6388,
      "minis": 6389,
      "brush": 6390,
      "coups": 6391,
      "beaux": 6392,
      "vieilles": 6393,
      "u00e2ce": 6394,
      "tiroir": 6395,
      "u2019un": 6396,
      "solved": 6397,
      "bert": 6398,
      "Perhaps": 6399,
      "bouch": 6400,
      "trape": 6401,
      "u00e9riode": 6402,
      "calls": 6403,
      "difficulty": 6404,
      "hung": 6405,
      "charger": 6406,
      "steak": 6407,
      "poign": 6408,
      "escaliers": 6409,
      "impatiente": 6410,
      "poster": 6411,
      "environs": 6412,
      "emprunt": 6413,
      "plantes": 6414,
      "scream": 6415,
      "diplom": 6416,
      "option": 6417,
      "kilom": 6418,
      "Continuez": 6419,
      "examination": 6420,
      "sofa": 6421,
      "nerveuse": 6422,
      "contribu": 6423,
      "pneu": 6424,
      "efficace": 6425,
      "serviette": 6426,
      "chaussettes": 6427,
      "accompagner": 6428,
      "emergency": 6429,
      "sapin": 6430,
      "Kyoto": 6431,
      "Ad": 6432,
      "Ju": 6433,
      "Passez": 6434,
      "bright": 6435,
      "coi": 6436,
      "fabri": 6437,
      "nais": 6438,
      "ograp": 6439,
      "vaux": 6440,
      "u00e9mon": 6441,
      "u00e9occup": 6442,
      "u00e9brouill": 6443,
      "annoy": 6444,
      "omach": 6445,
      "quante": 6446,
      "attemp": 6447,
      "negoti": 6448,
      "araign": 6449,
      "season": 6450,
      "ources": 6451,
      "trous": 6452,
      "avan": 6453,
      "stomach": 6454,
      "parmi": 6455,
      "parking": 6456,
      "compr": 6457,
      "sif": 6458,
      "ability": 6459,
      "lower": 6460,
      "rot": 6461,
      "donnez": 6462,
      "poses": 6463,
      "pocket": 6464,
      "irons": 6465,
      "ienne": 6466,
      "hobby": 6467,
      "dessous": 6468,
      "prove": 6469,
      "protest": 6470,
      "tendance": 6471,
      "frapper": 6472,
      "vend": 6473,
      "illegal": 6474,
      "saoul": 6475,
      "disposer": 6476,
      "distribu": 6477,
      "session": 6478,
      "crut": 6479,
      "crue": 6480,
      "posit": 6481,
      "pread": 6482,
      "longs": 6483,
      "trains": 6484,
      "menac": 6485,
      "ressens": 6486,
      "mati": 6487,
      "path": 6488,
      "deuxi": 6489,
      "joues": 6490,
      "aidera": 6491,
      "auraient": 6492,
      "u00e9tudes": 6493,
      "tled": 6494,
      "pressure": 6495,
      "woods": 6496,
      "chanceuse": 6497,
      "u00e9nie": 6498,
      "u00e9nager": 6499,
      "licen": 6500,
      "Parlons": 6501,
      "motion": 6502,
      "tomba": 6503,
      "continua": 6504,
      "u00e9sir": 6505,
      "terrifi": 6506,
      "highly": 6507,
      "logique": 6508,
      "poule": 6509,
      "prudentes": 6510,
      "ravie": 6511,
      "objection": 6512,
      "smells": 6513,
      "responsib": 6514,
      "u00e9crivain": 6515,
      "disappoint": 6516,
      "billets": 6517,
      "puissiez": 6518,
      "u00e9rangerait": 6519,
      "lourd": 6520,
      "chinois": 6521,
      "soudaine": 6522,
      "kinds": 6523,
      "progress": 6524,
      "gorge": 6525,
      "tremblement": 6526,
      "earthquake": 6527,
      "quotidienne": 6528,
      "Cher": 6529,
      "Hurry": 6530,
      "Write": 6531,
      "aci": 6532,
      "bone": 6533,
      "dame": 6534,
      "foi": 6535,
      "ias": 6536,
      "nit": 6537,
      "pants": 6538,
      "scen": 6539,
      "vague": 6540,
      "repr": 6541,
      "retrouv": 6542,
      "envis": 6543,
      "u00e9pla": 6544,
      "u00e9rents": 6545,
      "u00e9brou": 6546,
      "ering": 6547,
      "deb": 6548,
      "neare": 6549,
      "quelles": 6550,
      "passa": 6551,
      "chall": 6552,
      "choir": 6553,
      "chasse": 6554,
      "charm": 6555,
      "lid": 6556,
      "bel": 6557,
      "u00e9ton": 6558,
      "sieste": 6559,
      "loss": 6560,
      "treated": 6561,
      "admettre": 6562,
      "cover": 6563,
      "copy": 6564,
      "cops": 6565,
      "dessin": 6566,
      "coupe": 6567,
      "permit": 6568,
      "exig": 6569,
      "Mars": 6570,
      "surviv": 6571,
      "bling": 6572,
      "prenons": 6573,
      "gel": 6574,
      "email": 6575,
      "resta": 6576,
      "everywhere": 6577,
      "ausse": 6578,
      "Quelques": 6579,
      "ount": 6580,
      "clever": 6581,
      "Chine": 6582,
      "deviner": 6583,
      "turb": 6584,
      "cinquante": 6585,
      "u00c9crivez": 6586,
      "dorm": 6587,
      "emport": 6588,
      "emplo": 6589,
      "oublierai": 6590,
      "plaint": 6591,
      "Arri": 6592,
      "salary": 6593,
      "gies": 6594,
      "inviter": 6595,
      "chatte": 6596,
      "bague": 6597,
      "denied": 6598,
      "classroom": 6599,
      "facture": 6600,
      "cleaning": 6601,
      "fixed": 6602,
      "u00e9ducation": 6603,
      "violon": 6604,
      "violent": 6605,
      "confused": 6606,
      "regretter": 6607,
      "colline": 6608,
      "u00e9licieux": 6609,
      "survive": 6610,
      "traitement": 6611,
      "cuisinier": 6612,
      "Retour": 6613,
      "cuill": 6614,
      "jokes": 6615,
      "Jusqu": 6616,
      "rumor": 6617,
      "above": 6618,
      "volunte": 6619,
      "alcoho": 6620,
      "happiness": 6621,
      "Lui": 6622,
      "Pren": 6623,
      "Sal": 6624,
      "War": 6625,
      "cing": 6626,
      "rab": 6627,
      "sable": 6628,
      "ually": 6629,
      "ested": 6630,
      "enregis": 6631,
      "u00e9an": 6632,
      "u00e9reux": 6633,
      "meurs": 6634,
      "plas": 6635,
      "rowed": 6636,
      "poches": 6637,
      "potat": 6638,
      "advance": 6639,
      "Heure": 6640,
      "perple": 6641,
      "exprimer": 6642,
      "cheese": 6643,
      "checked": 6644,
      "yourselves": 6645,
      "blan": 6646,
      "blanche": 6647,
      "u00e9cla": 6648,
      "u00e9cut": 6649,
      "manage": 6650,
      "manif": 6651,
      "pies": 6652,
      "arrives": 6653,
      "partage": 6654,
      "feras": 6655,
      "ressenti": 6656,
      "austed": 6657,
      "appelez": 6658,
      "u00e9loign": 6659,
      "spell": 6660,
      "aimerait": 6661,
      "ounds": 6662,
      "u00e9cient": 6663,
      "trouves": 6664,
      "ignit": 6665,
      "u00e9tudiante": 6666,
      "u00e9chi": 6667,
      "u00e9chau": 6668,
      "entendue": 6669,
      "quitte": 6670,
      "perdue": 6671,
      "crier": 6672,
      "oixante": 6673,
      "teachers": 6674,
      "aliment": 6675,
      "suggested": 6676,
      "Apporte": 6677,
      "Japonais": 6678,
      "complet": 6679,
      "complete": 6680,
      "warned": 6681,
      "factory": 6682,
      "reasonable": 6683,
      "sensible": 6684,
      "remercie": 6685,
      "gym": 6686,
      "communic": 6687,
      "effective": 6688,
      "participer": 6689,
      "effet": 6690,
      "veuillez": 6691,
      "realized": 6692,
      "brouillard": 6693,
      "guide": 6694,
      "froide": 6695,
      "exhausted": 6696,
      "gentillesse": 6697,
      "nurse": 6698,
      "sachiez": 6699,
      "nearest": 6700,
      "By": 6701,
      "Cor": 6702,
      "Gu": 6703,
      "Hold": 6704,
      "Valent": 6705,
      "bs": 6706,
      "cave": 6707,
      "cins": 6708,
      "dare": 6709,
      "evi": 6710,
      "fence": 6711,
      "hion": 6712,
      "hall": 6713,
      "kne": 6714,
      "mun": 6715,
      "sno": 6716,
      "spread": 6717,
      "van": 6718,
      "reply": 6719,
      "u00e9vo": 6720,
      "u00e9pi": 6721,
      "u00e9hen": 6722,
      "issons": 6723,
      "thro": 6724,
      "arrow": 6725,
      "argue": 6726,
      "orth": 6727,
      "lly": 6728,
      "nois": 6729,
      "verse": 6730,
      "pardonner": 6731,
      "aired": 6732,
      "add": 6733,
      "voted": 6734,
      "montra": 6735,
      "social": 6736,
      "progr": 6737,
      "eday": 6738,
      "fever": 6739,
      "drez": 6740,
      "vente": 6741,
      "quels": 6742,
      "disiez": 6743,
      "u00e9cart": 6744,
      "grass": 6745,
      "u00e9rou": 6746,
      "u00e9rateur": 6747,
      "shape": 6748,
      "ckets": 6749,
      "herbe": 6750,
      "goodbye": 6751,
      "u00e2le": 6752,
      "compet": 6753,
      "ify": 6754,
      "studies": 6755,
      "endant": 6756,
      "u2019as": 6757,
      "risques": 6758,
      "corner": 6759,
      "malin": 6760,
      "umped": 6761,
      "Devrais": 6762,
      "pourrai": 6763,
      "express": 6764,
      "u00c9tu": 6765,
      "rug": 6766,
      "miroir": 6767,
      "rappelles": 6768,
      "cast": 6769,
      "nuages": 6770,
      "nourris": 6771,
      "borrowed": 6772,
      "respond": 6773,
      "Disposez": 6774,
      "Apportez": 6775,
      "rarely": 6776,
      "impatience": 6777,
      "orders": 6778,
      "accustom": 6779,
      "nettoy": 6780,
      "Essayons": 6781,
      "Sundays": 6782,
      "pleasant": 6783,
      "tarte": 6784,
      "bathroom": 6785,
      "magazines": 6786,
      "adorable": 6787,
      "fassions": 6788,
      "ridicule": 6789,
      "u00e9lectricit": 6790,
      "China": 6791,
      "tapis": 6792,
      "objectif": 6793,
      "curious": 6794,
      "motiv": 6795,
      "commettre": 6796,
      "German": 6797,
      "paresseux": 6798,
      "bruy": 6799,
      "guests": 6800,
      "immeuble": 6801,
      "quartier": 6802,
      "Fran": 6803,
      "fet": 6804,
      "ives": 6805,
      "nuts": 6806,
      "tante": 6807,
      "zer": 6808,
      "remonter": 6809,
      "u00e9vol": 6810,
      "istic": 6811,
      "incident": 6812,
      "invite": 6813,
      "thick": 6814,
      "dee": 6815,
      "neck": 6816,
      "meals": 6817,
      "ceinture": 6818,
      "llo": 6819,
      "chu": 6820,
      "auquel": 6821,
      "unable": 6822,
      "suspe": 6823,
      "avou": 6824,
      "pein": 6825,
      "parlais": 6826,
      "pardonn": 6827,
      "u00e9tour": 6828,
      "absor": 6829,
      "forcer": 6830,
      "hated": 6831,
      "vot": 6832,
      "copie": 6833,
      "Well": 6834,
      "frappa": 6835,
      "served": 6836,
      "perds": 6837,
      "exist": 6838,
      "chevaux": 6839,
      "vided": 6840,
      "souper": 6841,
      "visa": 6842,
      "rently": 6843,
      "paquet": 6844,
      "icked": 6845,
      "u00e9frig": 6846,
      "rouges": 6847,
      "mordu": 6848,
      "childhood": 6849,
      "shocked": 6850,
      "themselves": 6851,
      "understands": 6852,
      "adop": 6853,
      "meilleures": 6854,
      "produise": 6855,
      "mortes": 6856,
      "plainte": 6857,
      "valises": 6858,
      "horloge": 6859,
      "suspen": 6860,
      "translat": 6861,
      "collect": 6862,
      "u00efn": 6863,
      "teaches": 6864,
      "ennuy": 6865,
      "humble": 6866,
      "ugly": 6867,
      "successful": 6868,
      "employer": 6869,
      "u00e9ricain": 6870,
      "pretended": 6871,
      "Accord": 6872,
      "yellow": 6873,
      "stamps": 6874,
      "trusted": 6875,
      "liquide": 6876,
      "limite": 6877,
      "mondiale": 6878,
      "innocence": 6879,
      "budget": 6880,
      "Avant": 6881,
      "Lin": 6882,
      "Man": 6883,
      "Time": 6884,
      "bun": 6885,
      "casse": 6886,
      "gants": 6887,
      "jette": 6888,
      "jumped": 6889,
      "oven": 6890,
      "shi": 6891,
      "space": 6892,
      "soixante": 6893,
      "tong": 6894,
      "vine": 6895,
      "ism": 6896,
      "lex": 6897,
      "ombre": 6898,
      "def": 6899,
      "qualit": 6900,
      "nellement": 6901,
      "vel": 6902,
      "lack": 6903,
      "auteur": 6904,
      "lift": 6905,
      "betray": 6906,
      "alarm": 6907,
      "riage": 6908,
      "rende": 6909,
      "rencont": 6910,
      "renvoy": 6911,
      "u00eatet": 6912,
      "amuse": 6913,
      "dumb": 6914,
      "code": 6915,
      "coul": 6916,
      "uire": 6917,
      "maje": 6918,
      "igue": 6919,
      "blank": 6920,
      "bienvenue": 6921,
      "Laquelle": 6922,
      "crack": 6923,
      "financi": 6924,
      "longues": 6925,
      "cesser": 6926,
      "u00e2cher": 6927,
      "menu": 6928,
      "bite": 6929,
      "attendez": 6930,
      "guard": 6931,
      "jouait": 6932,
      "tention": 6933,
      "familier": 6934,
      "connaissent": 6935,
      "connaissons": 6936,
      "troisi": 6937,
      "fashion": 6938,
      "voyons": 6939,
      "douz": 6940,
      "artist": 6941,
      "u00e9truit": 6942,
      "u00c9te": 6943,
      "u00c9cris": 6944,
      "produits": 6945,
      "badly": 6946,
      "formulaire": 6947,
      "interpr": 6948,
      "cambri": 6949,
      "drives": 6950,
      "examens": 6951,
      "sauce": 6952,
      "stupides": 6953,
      "habituer": 6954,
      "miling": 6955,
      "sourit": 6956,
      "u00e9decins": 6957,
      "writes": 6958,
      "correcte": 6959,
      "thirteen": 6960,
      "Because": 6961,
      "u00e9liorer": 6962,
      "joli": 6963,
      "poussi": 6964,
      "refuser": 6965,
      "tromper": 6966,
      "cherchais": 6967,
      "relation": 6968,
      "u00e9goci": 6969,
      "archite": 6970,
      "u00e9conomie": 6971,
      "destination": 6972,
      "Croyez": 6973,
      "capitale": 6974,
      "allemand": 6975,
      "audience": 6976,
      "recommend": 6977,
      "sharp": 6978,
      "diagnost": 6979,
      "consulter": 6980,
      "volume": 6981,
      "accustomed": 6982,
      "Bonne": 6983,
      "Che": 6984,
      "Chi": 6985,
      "Pres": 6986,
      "Wor": 6987,
      "Water": 6988,
      "cate": 6989,
      "oles": 6990,
      "pper": 6991,
      "phab": 6992,
      "puni": 6993,
      "rand": 6994,
      "sie": 6995,
      "smiling": 6996,
      "til": 6997,
      "u00eaver": 6998,
      "remain": 6999,
      "rejoin": 7000,
      "remise": 7001,
      "u00e9hi": 7002,
      "assure": 7003,
      "depend": 7004,
      "atmo": 7005,
      "neither": 7006,
      "army": 7007,
      "secours": 7008,
      "ller": 7009,
      "lib": 7010,
      "lice": 7011,
      "mental": 7012,
      "alphab": 7013,
      "parvenu": 7014,
      "rendrai": 7015,
      "jeans": 7016,
      "confon": 7017,
      "accomp": 7018,
      "accor": 7019,
      "goal": 7020,
      "poker": 7021,
      "pockets": 7022,
      "ada": 7023,
      "irait": 7024,
      "host": 7025,
      "myst": 7026,
      "fiques": 7027,
      "surface": 7028,
      "bleue": 7029,
      "disg": 7030,
      "u00e9cour": 7031,
      "grav": 7032,
      "illness": 7033,
      "finite": 7034,
      "prevented": 7035,
      "impr": 7036,
      "tells": 7037,
      "passage": 7038,
      "solaire": 7039,
      "fautes": 7040,
      "whose": 7041,
      "u00e9gler": 7042,
      "surprises": 7043,
      "ottes": 7044,
      "honneur": 7045,
      "adorent": 7046,
      "Indi": 7047,
      "mayor": 7048,
      "romans": 7049,
      "u00e9veille": 7050,
      "u00e9velop": 7051,
      "sembler": 7052,
      "awful": 7053,
      "thirsty": 7054,
      "u00c9tais": 7055,
      "approach": 7056,
      "poulet": 7057,
      "compliment": 7058,
      "papa": 7059,
      "mouill": 7060,
      "ennuyer": 7061,
      "clearly": 7062,
      "vivait": 7063,
      "midnight": 7064,
      "accue": 7065,
      "Plusieurs": 7066,
      "possibility": 7067,
      "baisser": 7068,
      "pleasure": 7069,
      "embarras": 7070,
      "exciting": 7071,
      "election": 7072,
      "apparence": 7073,
      "succeeded": 7074,
      "protection": 7075,
      "repaired": 7076,
      "introduced": 7077,
      "operation": 7078,
      "model": 7079,
      "improve": 7080,
      "Aidez": 7081,
      "fifty": 7082,
      "obviously": 7083,
      "prisonniers": 7084,
      "canadien": 7085,
      "original": 7086,
      "neiger": 7087,
      "ajouter": 7088,
      "distinguer": 7089,
      "anxious": 7090,
      "education": 7091,
      "knowledge": 7092,
      "employe": 7093,
      "According": 7094,
      "atmosp": 7095,
      "Fi": 7096,
      "Fri": 7097,
      "Osa": 7098,
      "Two": 7099,
      "US": 7100,
      "ctor": 7101,
      "elev": 7102,
      "fy": 7103,
      "ging": 7104,
      "lux": 7105,
      "vom": 7106,
      "vable": 7107,
      "retire": 7108,
      "aides": 7109,
      "onze": 7110,
      "u00e9ir": 7111,
      "u00e9mor": 7112,
      "u00e9venu": 7113,
      "inhabitue": 7114,
      "lean": 7115,
      "demie": 7116,
      "meth": 7117,
      "chand": 7118,
      "oient": 7119,
      "ieuses": 7120,
      "behave": 7121,
      "becoming": 7122,
      "rigo": 7123,
      "parte": 7124,
      "confus": 7125,
      "confortable": 7126,
      "plate": 7127,
      "plants": 7128,
      "comb": 7129,
      "sibles": 7130,
      "aboy": 7131,
      "tip": 7132,
      "restez": 7133,
      "u00fble": 7134,
      "u00e7aise": 7135,
      "irr": 7136,
      "hole": 7137,
      "cooked": 7138,
      "villes": 7139,
      "fol": 7140,
      "igr": 7141,
      "ignez": 7142,
      "grate": 7143,
      "Neither": 7144,
      "micro": 7145,
      "u00e9ph": 7146,
      "bonjour": 7147,
      "preuves": 7148,
      "courr": 7149,
      "comport": 7150,
      "entendit": 7151,
      "Assure": 7152,
      "jouent": 7153,
      "closer": 7154,
      "trouva": 7155,
      "careless": 7156,
      "winning": 7157,
      "importantes": 7158,
      "rues": 7159,
      "regardes": 7160,
      "arriverait": 7161,
      "blagues": 7162,
      "dollar": 7163,
      "Attention": 7164,
      "travaillez": 7165,
      "satisfaite": 7166,
      "habits": 7167,
      "ordinateurs": 7168,
      "contents": 7169,
      "louer": 7170,
      "promises": 7171,
      "u00e9aliser": 7172,
      "field": 7173,
      "violin": 7174,
      "stronger": 7175,
      "humili": 7176,
      "u00e9serv": 7177,
      "u00e9prouv": 7178,
      "kidding": 7179,
      "attach": 7180,
      "divorced": 7181,
      "fluent": 7182,
      "foolish": 7183,
      "mentionn": 7184,
      "repair": 7185,
      "crowded": 7186,
      "respecter": 7187,
      "persuader": 7188,
      "crossed": 7189,
      "envelop": 7190,
      "climbed": 7191,
      "threaten": 7192,
      "Osaka": 7193,
      "grateful": 7194,
      "Eve": 7195,
      "Mex": 7196,
      "Pendant": 7197,
      "Sit": 7198,
      "Toi": 7199,
      "basse": 7200,
      "jure": 7201,
      "mass": 7202,
      "oce": 7203,
      "tis": 7204,
      "tab": 7205,
      "wing": 7206,
      "resign": 7207,
      "recherch": 7208,
      "esome": 7209,
      "u00e9pen": 7210,
      "u00e9pris": 7211,
      "u00e9voyez": 7212,
      "injuste": 7213,
      "thme": 7214,
      "deaf": 7215,
      "depends": 7216,
      "depressed": 7217,
      "atic": 7218,
      "quette": 7219,
      "passes": 7220,
      "lad": 7221,
      "aunt": 7222,
      "unusual": 7223,
      "ettes": 7224,
      "stars": 7225,
      "u00e9tent": 7226,
      "u00eatons": 7227,
      "amical": 7228,
      "confront": 7229,
      "apply": 7230,
      "compar": 7231,
      "acy": 7232,
      "wealth": 7233,
      "mob": 7234,
      "nowhere": 7235,
      "perfor": 7236,
      "igne": 7237,
      "onge": 7238,
      "mix": 7239,
      "criti": 7240,
      "u00e9put": 7241,
      "bond": 7242,
      "Doing": 7243,
      "airplane": 7244,
      "possession": 7245,
      "ferons": 7246,
      "shoulder": 7247,
      "stories": 7248,
      "attendent": 7249,
      "corriger": 7250,
      "passagers": 7251,
      "viendrais": 7252,
      "puzz": 7253,
      "offen": 7254,
      "whenever": 7255,
      "espion": 7256,
      "indus": 7257,
      "master": 7258,
      "shoot": 7259,
      "Devine": 7260,
      "u00e9pondit": 7261,
      "trahi": 7262,
      "u00e9nage": 7263,
      "Sommes": 7264,
      "hurler": 7265,
      "sym": 7266,
      "value": 7267,
      "cases": 7268,
      "install": 7269,
      "signer": 7270,
      "u00e9mentaire": 7271,
      "opinions": 7272,
      "spot": 7273,
      "discussed": 7274,
      "drove": 7275,
      "cleaned": 7276,
      "u00e9duire": 7277,
      "millions": 7278,
      "raised": 7279,
      "scient": 7280,
      "bottom": 7281,
      "constamment": 7282,
      "hauteur": 7283,
      "naturel": 7284,
      "persuade": 7285,
      "fleuve": 7286,
      "principal": 7287,
      "u00e9vidence": 7288,
      "automne": 7289,
      "spider": 7290,
      "beauty": 7291,
      "soudain": 7292,
      "Seriez": 7293,
      "accomplir": 7294,
      "u0153uvre": 7295,
      "Ouvrez": 7296,
      "u00e9lection": 7297,
      "alternative": 7298,
      "shelf": 7299,
      "occurred": 7300,
      "chirurg": 7301,
      "naissance": 7302,
      "quotidiennement": 7303,
      "deeply": 7304,
      "tongue": 7305,
      "Cou": 7306,
      "Spe": 7307,
      "School": 7308,
      "bale": 7309,
      "dat": 7310,
      "farm": 7311,
      "gon": 7312,
      "gner": 7313,
      "hale": 7314,
      "kar": 7315,
      "maman": 7316,
      "none": 7317,
      "pus": 7318,
      "pure": 7319,
      "pond": 7320,
      "rout": 7321,
      "uil": 7322,
      "var": 7323,
      "retired": 7324,
      "reviendra": 7325,
      "ana": 7326,
      "insur": 7327,
      "income": 7328,
      "del": 7329,
      "depar": 7330,
      "demeure": 7331,
      "armed": 7332,
      "toes": 7333,
      "towel": 7334,
      "separ": 7335,
      "hein": 7336,
      "unless": 7337,
      "sucr": 7338,
      "pel": 7339,
      "libert": 7340,
      "partez": 7341,
      "paroles": 7342,
      "amp": 7343,
      "concours": 7344,
      "sonner": 7345,
      "plaign": 7346,
      "agi": 7347,
      "tremp": 7348,
      "u00e7us": 7349,
      "admets": 7350,
      "desper": 7351,
      "eds": 7352,
      "percent": 7353,
      "choc": 7354,
      "survivre": 7355,
      "Ceux": 7356,
      "ouvrez": 7357,
      "u00e9roul": 7358,
      "essaies": 7359,
      "piqu": 7360,
      "cherchez": 7361,
      "laisses": 7362,
      "directement": 7363,
      "directeur": 7364,
      "vieill": 7365,
      "prevent": 7366,
      "cardi": 7367,
      "u00e2ches": 7368,
      "achev": 7369,
      "u00f4tres": 7370,
      "helps": 7371,
      "inspir": 7372,
      "faisant": 7373,
      "arranger": 7374,
      "pulled": 7375,
      "clef": 7376,
      "croyez": 7377,
      "cares": 7378,
      "essayais": 7379,
      "u00e9col": 7380,
      "trouvent": 7381,
      "stru": 7382,
      "lately": 7383,
      "pattes": 7384,
      "conseille": 7385,
      "changements": 7386,
      "interrupt": 7387,
      "example": 7388,
      "romant": 7389,
      "lignes": 7390,
      "castle": 7391,
      "fauch": 7392,
      "ennemis": 7393,
      "fallen": 7394,
      "attractive": 7395,
      "awesome": 7396,
      "fourche": 7397,
      "marchand": 7398,
      "voient": 7399,
      "poured": 7400,
      "patronne": 7401,
      "assume": 7402,
      "u00eachez": 7403,
      "gratuit": 7404,
      "meubles": 7405,
      "issement": 7406,
      "jalouse": 7407,
      "merveilleuse": 7408,
      "lampe": 7409,
      "allumer": 7410,
      "capitaine": 7411,
      "optimiste": 7412,
      "consacr": 7413,
      "qualifi": 7414,
      "agissait": 7415,
      "bench": 7416,
      "u00e9pourvu": 7417,
      "consomm": 7418,
      "scientifique": 7419,
      "Few": 7420,
      "reliable": 7421,
      "abattu": 7422,
      "u00efncidence": 7423,
      "Friday": 7424,
      "elevator": 7425,
      "chandail": 7426,
      "500": 7427,
      "Close": 7428,
      "Lisez": 7429,
      "Open": 7430,
      "Po": 7431,
      "Rus": 7432,
      "Sever": 7433,
      "Yes": 7434,
      "cure": 7435,
      "gout": 7436,
      "jui": 7437,
      "lation": 7438,
      "pity": 7439,
      "pushed": 7440,
      "ual": 7441,
      "replace": 7442,
      "espace": 7443,
      "ented": 7444,
      "encourage": 7445,
      "u00e9venir": 7446,
      "devenus": 7447,
      "quas": 7448,
      "toir": 7449,
      "veill": 7450,
      "ordonn": 7451,
      "lage": 7452,
      "labor": 7453,
      "subi": 7454,
      "u00e8tre": 7455,
      "u00e8vres": 7456,
      "antly": 7457,
      "lion": 7458,
      "dig": 7459,
      "parla": 7460,
      "u00e9trer": 7461,
      "amount": 7462,
      "apers": 7463,
      "siff": 7464,
      "agri": 7465,
      "acte": 7466,
      "accompl": 7467,
      "respirer": 7468,
      "weigh": 7469,
      "vole": 7470,
      "dess": 7471,
      "angle": 7472,
      "tence": 7473,
      "server": 7474,
      "firent": 7475,
      "surpren": 7476,
      "venons": 7477,
      "u00e9sit": 7478,
      "uler": 7479,
      "fog": 7480,
      "Compare": 7481,
      "illon": 7482,
      "mier": 7483,
      "u00f4ts": 7484,
      "croir": 7485,
      "craign": 7486,
      "finit": 7487,
      "cking": 7488,
      "hero": 7489,
      "partons": 7490,
      "ferma": 7491,
      "vrez": 7492,
      "els": 7493,
      "connus": 7494,
      "mature": 7495,
      "biolog": 7496,
      "speed": 7497,
      "mud": 7498,
      "attendons": 7499,
      "assass": 7500,
      "aches": 7501,
      "malentendu": 7502,
      "jouez": 7503,
      "sentit": 7504,
      "devin": 7505,
      "tableaux": 7506,
      "calend": 7507,
      "Three": 7508,
      "conducteur": 7509,
      "regardez": 7510,
      "mirror": 7511,
      "utiles": 7512,
      "examiner": 7513,
      "rappelez": 7514,
      "casser": 7515,
      "prisoners": 7516,
      "pieces": 7517,
      "pharm": 7518,
      "u00e9sire": 7519,
      "taxes": 7520,
      "complex": 7521,
      "superbe": 7522,
      "burn": 7523,
      "burst": 7524,
      "pareil": 7525,
      "convaincue": 7526,
      "u00e9van": 7527,
      "figur": 7528,
      "u00efste": 7529,
      "Lorsqu": 7530,
      "baiss": 7531,
      "elected": 7532,
      "u00e9phoner": 7533,
      "damage": 7534,
      "trembl": 7535,
      "u00e9vident": 7536,
      "incroyablement": 7537,
      "annuler": 7538,
      "knocked": 7539,
      "cancel": 7540,
      "drowned": 7541,
      "sympathique": 7542,
      "allergique": 7543,
      "nonsense": 7544,
      "salade": 7545,
      "grimper": 7546,
      "split": 7547,
      "fournir": 7548,
      "jaune": 7549,
      "ridiculous": 7550,
      "reminds": 7551,
      "brown": 7552,
      "Trois": 7553,
      "soudainement": 7554,
      "u00e9brouiller": 7555,
      "Prenons": 7556,
      "diagnostiqu": 7557,
      "Several": 7558,
      "Cal": 7559,
      "Part": 7560,
      "Wash": 7561,
      "carri": 7562,
      "diez": 7563,
      "dust": 7564,
      "ius": 7565,
      "lines": 7566,
      "mens": 7567,
      "pig": 7568,
      "ray": 7569,
      "tles": 7570,
      "taux": 7571,
      "vache": 7572,
      "revienne": 7573,
      "enthous": 7574,
      "teint": 7575,
      "passez": 7576,
      "aises": 7577,
      "laun": 7578,
      "theater": 7579,
      "tro": 7580,
      "usine": 7581,
      "u00e8ner": 7582,
      "dimin": 7583,
      "alarme": 7584,
      "u00e9tar": 7585,
      "confe": 7586,
      "confir": 7587,
      "plom": 7588,
      "acteur": 7589,
      "rescue": 7590,
      "voter": 7591,
      "mod": 7592,
      "tendu": 7593,
      "hired": 7594,
      "myster": 7595,
      "niveau": 7596,
      "safet": 7597,
      "disagree": 7598,
      "bienvenu": 7599,
      "gras": 7600,
      "mante": 7601,
      "plafond": 7602,
      "shorter": 7603,
      "mince": 7604,
      "marteau": 7605,
      "final": 7606,
      "impoli": 7607,
      "affair": 7608,
      "prepar": 7609,
      "carottes": 7610,
      "u00e2me": 7611,
      "visible": 7612,
      "Mondays": 7613,
      "enfu": 7614,
      "u2019aime": 7615,
      "attended": 7616,
      "achats": 7617,
      "ounce": 7618,
      "demandes": 7619,
      "viendras": 7620,
      "arrang": 7621,
      "planned": 7622,
      "rooms": 7623,
      "regular": 7624,
      "contest": 7625,
      "turning": 7626,
      "bouge": 7627,
      "shoe": 7628,
      "doulou": 7629,
      "Demandez": 7630,
      "travaillons": 7631,
      "coln": 7632,
      "u00e9nu": 7633,
      "friendship": 7634,
      "humains": 7635,
      "interdit": 7636,
      "refriger": 7637,
      "skir": 7638,
      "sites": 7639,
      "situe": 7640,
      "begun": 7641,
      "motions": 7642,
      "falling": 7643,
      "alibi": 7644,
      "stead": 7645,
      "plaisante": 7646,
      "curtain": 7647,
      "sacri": 7648,
      "gueule": 7649,
      "boxes": 7650,
      "magasins": 7651,
      "patients": 7652,
      "rases": 7653,
      "politics": 7654,
      "mouchoir": 7655,
      "traveled": 7656,
      "engage": 7657,
      "u00e9ception": 7658,
      "humour": 7659,
      "souhaiter": 7660,
      "furieux": 7661,
      "satisfaits": 7662,
      "mountains": 7663,
      "talentue": 7664,
      "website": 7665,
      "Espagne": 7666,
      "u00c9coutez": 7667,
      "physique": 7668,
      "clouds": 7669,
      "branch": 7670,
      "influence": 7671,
      "religion": 7672,
      "destroyed": 7673,
      "Lincoln": 7674,
      "enthousias": 7675,
      "safety": 7676,
      "12": 7677,
      "Alice": 7678,
      "Cla": 7679,
      "Dr": 7680,
      "More": 7681,
      "Pro": 7682,
      "Smo": 7683,
      "bass": 7684,
      "cture": 7685,
      "dating": 7686,
      "factu": 7687,
      "flying": 7688,
      "fausse": 7689,
      "gate": 7690,
      "joie": 7691,
      "oses": 7692,
      "rine": 7693,
      "swear": 7694,
      "tait": 7695,
      "wild": 7696,
      "u00eff": 7697,
      "repro": 7698,
      "reuses": 7699,
      "retenir": 7700,
      "enverrai": 7701,
      "u00e9ant": 7702,
      "u00e9toile": 7703,
      "initi": 7704,
      "ashed": 7705,
      "aspir": 7706,
      "dette": 7707,
      "arrest": 7708,
      "lamp": 7709,
      "chif": 7710,
      "chic": 7711,
      "themat": 7712,
      "avent": 7713,
      "lif": 7714,
      "dions": 7715,
      "state": 7716,
      "renvers": 7717,
      "unex": 7718,
      "convi": 7719,
      "sonna": 7720,
      "ploy": 7721,
      "sid": 7722,
      "accompagn": 7723,
      "lope": 7724,
      "locu": 7725,
      "terms": 7726,
      "admis": 7727,
      "socks": 7728,
      "modi": 7729,
      "prover": 7730,
      "perman": 7731,
      "someday": 7732,
      "venant": 7733,
      "virer": 7734,
      "nia": 7735,
      "disais": 7736,
      "drag": 7737,
      "Whatever": 7738,
      "uise": 7739,
      "brief": 7740,
      "touched": 7741,
      "u00f4te": 7742,
      "u00e9pais": 7743,
      "partag": 7744,
      "affam": 7745,
      "restait": 7746,
      "soul": 7747,
      "u00e2mer": 7748,
      "Once": 7749,
      "ressources": 7750,
      "aussit": 7751,
      "197": 7752,
      "appelles": 7753,
      "appears": 7754,
      "portent": 7755,
      "insist": 7756,
      "faisiez": 7757,
      "publ": 7758,
      "paye": 7759,
      "u00e9gli": 7760,
      "prime": 7761,
      "priorit": 7762,
      "voyag": 7763,
      "approuv": 7764,
      "earns": 7765,
      "volant": 7766,
      "produis": 7767,
      "genius": 7768,
      "camar": 7769,
      "adorerais": 7770,
      "glac": 7771,
      "sortis": 7772,
      "souhaitez": 7773,
      "u00e9coul": 7774,
      "u00e9ussite": 7775,
      "complained": 7776,
      "songes": 7777,
      "savaient": 7778,
      "pauvres": 7779,
      "montrerai": 7780,
      "indiqu": 7781,
      "signifi": 7782,
      "u00e9duis": 7783,
      "ennuie": 7784,
      "communi": 7785,
      "u00e9server": 7786,
      "u00e9servation": 7787,
      "coincidence": 7788,
      "attaque": 7789,
      "baiser": 7790,
      "excellente": 7791,
      "persuaded": 7792,
      "u00e9missionn": 7793,
      "eleven": 7794,
      "novels": 7795,
      "prononcer": 7796,
      "suicid": 7797,
      "detail": 7798,
      "idiots": 7799,
      "fingers": 7800,
      "lourde": 7801,
      "u00e9toffe": 7802,
      "interrompre": 7803,
      "fifteen": 7804,
      "joking": 7805,
      "menteuse": 7806,
      "modern": 7807,
      "effectuer": 7808,
      "Listen": 7809,
      "canceled": 7810,
      "psycho": 7811,
      "economy": 7812,
      "suffering": 7813,
      "construction": 7814,
      "avancer": 7815,
      "licenci": 7816,
      "responsibility": 7817,
      "perplexe": 7818,
      "rencontres": 7819,
      "douzaine": 7820,
      "Presque": 7821,
      "juice": 7822,
      "refrigerator": 7823,
      "Claus": 7824,
      "Mother": 7825,
      "Ob": 7826,
      "Pap": 7827,
      "Say": 7828,
      "Saint": 7829,
      "aled": 7830,
      "iP": 7831,
      "lant": 7832,
      "mout": 7833,
      "nie": 7834,
      "narrow": 7835,
      "rus": 7836,
      "raf": 7837,
      "rattraper": 7838,
      "tied": 7839,
      "tail": 7840,
      "yard": 7841,
      "zing": 7842,
      "repris": 7843,
      "reint": 7844,
      "remonte": 7845,
      "entez": 7846,
      "encre": 7847,
      "onom": 7848,
      "u00e9jeune": 7849,
      "asons": 7850,
      "aside": 7851,
      "definite": 7852,
      "attribu": 7853,
      "seats": 7854,
      "entour": 7855,
      "itions": 7856,
      "passera": 7857,
      "trunk": 7858,
      "oiled": 7859,
      "tue": 7860,
      "prati": 7861,
      "beard": 7862,
      "stren": 7863,
      "rendra": 7864,
      "confirm": 7865,
      "ciation": 7866,
      "approch": 7867,
      "agnes": 7868,
      "actrice": 7869,
      "gos": 7870,
      "loan": 7871,
      "irrit": 7872,
      "mos": 7873,
      "oney": 7874,
      "cheer": 7875,
      "fiable": 7876,
      "chosen": 7877,
      "Italie": 7878,
      "uls": 7879,
      "distr": 7880,
      "dispu": 7881,
      "grab": 7882,
      "icile": 7883,
      "u00e9rait": 7884,
      "marriage": 7885,
      "u00f4ture": 7886,
      "positive": 7887,
      "predict": 7888,
      "menace": 7889,
      "mensonges": 7890,
      "vaches": 7891,
      "connait": 7892,
      "mates": 7893,
      "enfui": 7894,
      "risqu": 7895,
      "passeng": 7896,
      "raw": 7897,
      "Canada": 7898,
      "planet": 7899,
      "u00e9flex": 7900,
      "contraire": 7901,
      "spare": 7902,
      "spici": 7903,
      "foreig": 7904,
      "culp": 7905,
      "contag": 7906,
      "downstairs": 7907,
      "jobs": 7908,
      "pourraient": 7909,
      "captain": 7910,
      "Allu": 7911,
      "balles": 7912,
      "ballon": 7913,
      "aimable": 7914,
      "salu": 7915,
      "bitter": 7916,
      "horses": 7917,
      "begins": 7918,
      "juger": 7919,
      "partiel": 7920,
      "u00e9coutes": 7921,
      "farmer": 7922,
      "u00e9coutez": 7923,
      "owns": 7924,
      "exacte": 7925,
      "messages": 7926,
      "foudre": 7927,
      "boissons": 7928,
      "logie": 7929,
      "mourut": 7930,
      "medical": 7931,
      "pleuve": 7932,
      "dreaming": 7933,
      "drogue": 7934,
      "joyeux": 7935,
      "publicit": 7936,
      "trompe": 7937,
      "domicile": 7938,
      "courageux": 7939,
      "cherchait": 7940,
      "terriblement": 7941,
      "midable": 7942,
      "concerne": 7943,
      "divorc": 7944,
      "selling": 7945,
      "disposais": 7946,
      "soutien": 7947,
      "automob": 7948,
      "hambur": 7949,
      "retira": 7950,
      "committed": 7951,
      "holidays": 7952,
      "cuire": 7953,
      "techno": 7954,
      "basketball": 7955,
      "bomb": 7956,
      "Choisis": 7957,
      "eventually": 7958,
      "pollution": 7959,
      "hypoth": 7960,
      "frightened": 7961,
      "delayed": 7962,
      "determined": 7963,
      "Prices": 7964,
      "envisager": 7965,
      "potatoes": 7966,
      "evidence": 7967,
      "betrayed": 7968,
      "embarrassed": 7969,
      "quasiment": 7970,
      "assassin": 7971,
      "locuteur": 7972,
      "passengers": 7973,
      "17": 7974,
      "300": 7975,
      "Asi": 7976,
      "Hav": 7977,
      "Hall": 7978,
      "Lune": 7979,
      "Mt": 7980,
      "Ra": 7981,
      "Vien": 7982,
      "blow": 7983,
      "cais": 7984,
      "cad": 7985,
      "gers": 7986,
      "gree": 7987,
      "gnez": 7988,
      "maux": 7989,
      "nue": 7990,
      "nord": 7991,
      "ote": 7992,
      "rail": 7993,
      "sce": 7994,
      "uff": 7995,
      "zone": 7996,
      "ouille": 7997,
      "remet": 7998,
      "aigne": 7999,
      "escla": 8000,
      "u00e9br": 8001,
      "asing": 8002,
      "deve": 8003,
      "attirer": 8004,
      "arde": 8005,
      "tol": 8006,
      "tori": 8007,
      "headed": 8008,
      "tration": 8009,
      "suspici": 8010,
      "usion": 8011,
      "lide": 8012,
      "u00e9tang": 8013,
      "rendent": 8014,
      "ama": 8015,
      "amic": 8016,
      "conques": 8017,
      "conclu": 8018,
      "condam": 8019,
      "cible": 8020,
      "sienne": 8021,
      "tires": 8022,
      "loy": 8023,
      "wasting": 8024,
      "admet": 8025,
      "adminis": 8026,
      "irais": 8027,
      "voleurs": 8028,
      "ghted": 8029,
      "motor": 8030,
      "tension": 8031,
      "hire": 8032,
      "ferez": 8033,
      "fronti": 8034,
      "quilles": 8035,
      "vrait": 8036,
      "bleeding": 8037,
      "tape": 8038,
      "quelconques": 8039,
      "u00e9saccord": 8040,
      "focus": 8041,
      "shame": 8042,
      "mile": 8043,
      "finan": 8044,
      "chers": 8045,
      "partment": 8046,
      "affect": 8047,
      "gentils": 8048,
      "acheta": 8049,
      "200": 8050,
      "entendis": 8051,
      "faisaient": 8052,
      "password": 8053,
      "tenter": 8054,
      "arrange": 8055,
      "wondered": 8056,
      "Change": 8057,
      "planted": 8058,
      "cale": 8059,
      "habiller": 8060,
      "spir": 8061,
      "jeta": 8062,
      "center": 8063,
      "bros": 8064,
      "struck": 8065,
      "polite": 8066,
      "polici": 8067,
      "doux": 8068,
      "u00e9chang": 8069,
      "souvien": 8070,
      "u00e9ponds": 8071,
      "production": 8072,
      "hurried": 8073,
      "ignored": 8074,
      "changent": 8075,
      "named": 8076,
      "walks": 8077,
      "maybe": 8078,
      "skill": 8079,
      "regardait": 8080,
      "judi": 8081,
      "greatest": 8082,
      "offered": 8083,
      "mangea": 8084,
      "cieuse": 8085,
      "higher": 8086,
      "smaller": 8087,
      "u00e9nig": 8088,
      "montagnes": 8089,
      "naked": 8090,
      "pleuvait": 8091,
      "wards": 8092,
      "moyenne": 8093,
      "etime": 8094,
      "linge": 8095,
      "endormir": 8096,
      "u00e9chelle": 8097,
      "rempl": 8098,
      "bourr": 8099,
      "holding": 8100,
      "survived": 8101,
      "newspapers": 8102,
      "pleurait": 8103,
      "Choose": 8104,
      "ciseaux": 8105,
      "kilos": 8106,
      "cuisini": 8107,
      "pretend": 8108,
      "customers": 8109,
      "fortunate": 8110,
      "package": 8111,
      "prisonnier": 8112,
      "grossier": 8113,
      "adultes": 8114,
      "bananes": 8115,
      "curios": 8116,
      "Commence": 8117,
      "allergic": 8118,
      "Mangez": 8119,
      "Choisissez": 8120,
      "relationship": 8121,
      "investigation": 8122,
      "false": 8123,
      "u00e9tabli": 8124,
      "experienced": 8125,
      "obscur": 8126,
      "serpents": 8127,
      "existence": 8128,
      "u00e9monie": 8129,
      "rabbit": 8130,
      "translated": 8131,
      "inhabituel": 8132,
      "ocean": 8133,
      "cardiaque": 8134,
      "conference": 8135,
      "thematics": 8136,
      "Papa": 8137,
      "suspicious": 8138,
      "Brit": 8139,
      "Cats": 8140,
      "Each": 8141,
      "Rends": 8142,
      "Rome": 8143,
      "Util": 8144,
      "gage": 8145,
      "gloves": 8146,
      "ha": 8147,
      "hil": 8148,
      "ky": 8149,
      "lanc": 8150,
      "miens": 8151,
      "pag": 8152,
      "pup": 8153,
      "shave": 8154,
      "tion": 8155,
      "ouill": 8156,
      "remind": 8157,
      "reviendrai": 8158,
      "enge": 8159,
      "u00e9res": 8160,
      "u00e9tez": 8161,
      "u00e9penser": 8162,
      "u00e9marr": 8163,
      "eral": 8164,
      "issant": 8165,
      "indiff": 8166,
      "incapacit": 8167,
      "astu": 8168,
      "aster": 8169,
      "dece": 8170,
      "defe": 8171,
      "atiques": 8172,
      "arna": 8173,
      "het": 8174,
      "meas": 8175,
      "Tomorrow": 8176,
      "trap": 8177,
      "libres": 8178,
      "bered": 8179,
      "diable": 8180,
      "verte": 8181,
      "u00e9tou": 8182,
      "rences": 8183,
      "cially": 8184,
      "apporte": 8185,
      "comit": 8186,
      "compos": 8187,
      "absur": 8188,
      "actor": 8189,
      "lois": 8190,
      "terror": 8191,
      "copies": 8192,
      "tend": 8193,
      "exchange": 8194,
      "exempl": 8195,
      "existe": 8196,
      "fich": 8197,
      "lymp": 8198,
      "knowing": 8199,
      "blew": 8200,
      "venais": 8201,
      "vive": 8202,
      "temple": 8203,
      "foods": 8204,
      "saou": 8205,
      "distrait": 8206,
      "blonde": 8207,
      "manue": 8208,
      "placard": 8209,
      "odd": 8210,
      "crash": 8211,
      "impuis": 8212,
      "aimed": 8213,
      "u00e2chez": 8214,
      "u00fbts": 8215,
      "speci": 8216,
      "Bois": 8217,
      "tentative": 8218,
      "radi": 8219,
      "huile": 8220,
      "commencent": 8221,
      "oldest": 8222,
      "lovely": 8223,
      "boue": 8224,
      "blessure": 8225,
      "u00e9trole": 8226,
      "honor": 8227,
      "emplettes": 8228,
      "genoux": 8229,
      "magne": 8230,
      "u00eaterai": 8231,
      "counting": 8232,
      "humide": 8233,
      "kindness": 8234,
      "interrup": 8235,
      "plaintes": 8236,
      "changing": 8237,
      "staring": 8238,
      "biggest": 8239,
      "horaire": 8240,
      "border": 8241,
      "jupe": 8242,
      "largest": 8243,
      "sourd": 8244,
      "u00fbrement": 8245,
      "barking": 8246,
      "u00e9mentaires": 8247,
      "enjoying": 8248,
      "nearby": 8249,
      "ignorance": 8250,
      "croyait": 8251,
      "u00e8vement": 8252,
      "balance": 8253,
      "soigne": 8254,
      "sympt": 8255,
      "subway": 8256,
      "endormie": 8257,
      "attacked": 8258,
      "complaints": 8259,
      "u00e9guli": 8260,
      "apology": 8261,
      "descendu": 8262,
      "deserves": 8263,
      "Frank": 8264,
      "doubts": 8265,
      "intended": 8266,
      "scand": 8267,
      "tatou": 8268,
      "similaire": 8269,
      "accroch": 8270,
      "lapin": 8271,
      "canadienne": 8272,
      "engaged": 8273,
      "objectifs": 8274,
      "moderne": 8275,
      "conclusion": 8276,
      "quarante": 8277,
      "batterie": 8278,
      "fantastique": 8279,
      "graduated": 8280,
      "u00e9thode": 8281,
      "reservation": 8282,
      "Afrique": 8283,
      "properly": 8284,
      "texte": 8285,
      "achieve": 8286,
      "signification": 8287,
      "doutes": 8288,
      "oblige": 8289,
      "electricity": 8290,
      "Heureusement": 8291,
      "courriel": 8292,
      "insurance": 8293,
      ",\\\"": 8294,
      "Bir": 8295,
      "Stu": 8296,
      "ament": 8297,
      "baign": 8298,
      "cum": 8299,
      "gathe": 8300,
      "h30": 8301,
      "jong": 8302,
      "mouve": 8303,
      "tint": 8304,
      "redu": 8305,
      "request": 8306,
      "reporter": 8307,
      "u00e9place": 8308,
      "insec": 8309,
      "insult": 8310,
      "associ": 8311,
      "atom": 8312,
      "atures": 8313,
      "sect": 8314,
      "height": 8315,
      "hello": 8316,
      "suf": 8317,
      "prince": 8318,
      "u00e8nes": 8319,
      "dira": 8320,
      "dozen": 8321,
      "pardon": 8322,
      "u00e9tit": 8323,
      "u00e9tasun": 8324,
      "amener": 8325,
      "jection": 8326,
      "contient": 8327,
      "sien": 8328,
      "actic": 8329,
      "lesson": 8330,
      "former": 8331,
      "formidable": 8332,
      "goods": 8333,
      "pensons": 8334,
      "pop": 8335,
      "poil": 8336,
      "pointe": 8337,
      "posons": 8338,
      "u00e7ait": 8339,
      "advert": 8340,
      "voil": 8341,
      "proce": 8342,
      "edge": 8343,
      "cough": 8344,
      "cheek": 8345,
      "dreamed": 8346,
      "fianc": 8347,
      "nier": 8348,
      "saisi": 8349,
      "Lear": 8350,
      "discovered": 8351,
      "disappeared": 8352,
      "ouvri": 8353,
      "u00e9crite": 8354,
      "mance": 8355,
      "manques": 8356,
      "toilet": 8357,
      "bra": 8358,
      "mies": 8359,
      "mirent": 8360,
      "croient": 8361,
      "airie": 8362,
      "imum": 8363,
      "lash": 8364,
      "soulev": 8365,
      "aida": 8366,
      "stup": 8367,
      "buvez": 8368,
      "u2019y": 8369,
      "u2019aurais": 8370,
      "insis": 8371,
      "rise": 8372,
      "ounced": 8373,
      "guer": 8374,
      "jouets": 8375,
      "Enfin": 8376,
      "ouvertes": 8377,
      "u00e9gage": 8378,
      "causer": 8379,
      "promet": 8380,
      "rouler": 8381,
      "centaines": 8382,
      "douze": 8383,
      "arrivait": 8384,
      "travaillais": 8385,
      "otion": 8386,
      "Think": 8387,
      "handy": 8388,
      "handsome": 8389,
      "gnant": 8390,
      "finding": 8391,
      "applique": 8392,
      "produira": 8393,
      "drawer": 8394,
      "hug": 8395,
      "salon": 8396,
      "bitten": 8397,
      "larger": 8398,
      "milit": 8399,
      "prudence": 8400,
      "restaurants": 8401,
      "doctors": 8402,
      "Soon": 8403,
      "phrases": 8404,
      "inclu": 8405,
      "u00e9cessaires": 8406,
      "pleuvra": 8407,
      "saving": 8408,
      "warn": 8409,
      "remark": 8410,
      "papiers": 8411,
      "Allemagne": 8412,
      "videmment": 8413,
      "panier": 8414,
      "u00efne": 8415,
      "worrying": 8416,
      "Shall": 8417,
      "average": 8418,
      "noirs": 8419,
      "u00e9sert": 8420,
      "assumed": 8421,
      "Essaye": 8422,
      "u00e9tudiantes": 8423,
      "baisse": 8424,
      "traduction": 8425,
      "heurt": 8426,
      "raccro": 8427,
      "souvenirs": 8428,
      "effon": 8429,
      "alentours": 8430,
      "u00e9testent": 8431,
      "strike": 8432,
      "u00e9ricains": 8433,
      "u00e9lectron": 8434,
      "respecte": 8435,
      "concentrate": 8436,
      "professionnel": 8437,
      "u00e9moin": 8438,
      "lancer": 8439,
      "committee": 8440,
      "identit": 8441,
      "u00e9paules": 8442,
      "bombe": 8443,
      "ambitieux": 8444,
      "remplir": 8445,
      "u00e9viseur": 8446,
      "victime": 8447,
      "u00e9clata": 8448,
      "maternelle": 8449,
      "candy": 8450,
      "celebrate": 8451,
      "assiette": 8452,
      "Asseyons": 8453,
      "valuable": 8454,
      "stealing": 8455,
      "arrog": 8456,
      "incredible": 8457,
      "challenge": 8458,
      "throat": 8459,
      "adopted": 8460,
      "performance": 8461,
      "data": 8462,
      "desperate": 8463,
      "factures": 8464,
      "unexpected": 8465,
      "strength": 8466,
      "dispute": 8467,
      "condamn": 8468,
      "soigneusement": 8469,
      "gathered": 8470,
      "25": 8471,
      "Dad": 8472,
      "Maman": 8473,
      "Net": 8474,
      "Rempl": 8475,
      "Tra": 8476,
      "ah": 8477,
      "alike": 8478,
      "fuite": 8479,
      "ides": 8480,
      "ibles": 8481,
      "jury": 8482,
      "mall": 8483,
      "noire": 8484,
      "oween": 8485,
      "oxy": 8486,
      "ppe": 8487,
      "pli": 8488,
      "pages": 8489,
      "sne": 8490,
      "sar": 8491,
      "sla": 8492,
      "tais": 8493,
      "taire": 8494,
      "vante": 8495,
      "rele": 8496,
      "rever": 8497,
      "remu": 8498,
      "reconna": 8499,
      "ony": 8500,
      "u00e9la": 8501,
      "eras": 8502,
      "analy": 8503,
      "invented": 8504,
      "omen": 8505,
      "dete": 8506,
      "sement": 8507,
      "itself": 8508,
      "aud": 8509,
      "autor": 8510,
      "tum": 8511,
      "user": 8512,
      "antici": 8513,
      "belt": 8514,
      "rious": 8515,
      "stared": 8516,
      "verres": 8517,
      "pari": 8518,
      "conserv": 8519,
      "plied": 8520,
      "sir": 8521,
      "acts": 8522,
      "accur": 8523,
      "ressemblent": 8524,
      "poursui": 8525,
      "fortes": 8526,
      "los": 8527,
      "loaded": 8528,
      "pendent": 8529,
      "solit": 8530,
      "cooper": 8531,
      "couche": 8532,
      "couleurs": 8533,
      "uitement": 8534,
      "mesures": 8535,
      "serions": 8536,
      "serrer": 8537,
      "cheaper": 8538,
      "fid": 8539,
      "vides": 8540,
      "fox": 8541,
      "sade": 8542,
      "u00e9criture": 8543,
      "upon": 8544,
      "essent": 8545,
      "touchez": 8546,
      "u00e9pit": 8547,
      "misunderstanding": 8548,
      "Quit": 8549,
      "carr": 8550,
      "gardes": 8551,
      "obst": 8552,
      "menez": 8553,
      "Ont": 8554,
      "199": 8555,
      "ived": 8556,
      "bier": 8557,
      "liter": 8558,
      "helpful": 8559,
      "u2019hui": 8560,
      "u00eetes": 8561,
      "corn": 8562,
      "guar": 8563,
      "types": 8564,
      "personnelle": 8565,
      "faith": 8566,
      "faibles": 8567,
      "vitam": 8568,
      "promit": 8569,
      "honey": 8570,
      "importants": 8571,
      "calmes": 8572,
      "bouill": 8573,
      "shook": 8574,
      "shock": 8575,
      "policy": 8576,
      "trouveras": 8577,
      "trouverais": 8578,
      "Reviens": 8579,
      "Remettez": 8580,
      "rumeurs": 8581,
      "interro": 8582,
      "tels": 8583,
      "Park": 8584,
      "sauve": 8585,
      "confidence": 8586,
      "chauff": 8587,
      "numbers": 8588,
      "situations": 8589,
      "dangers": 8590,
      "diriez": 8591,
      "bags": 8592,
      "intentions": 8593,
      "favori": 8594,
      "sacs": 8595,
      "agreement": 8596,
      "jogging": 8597,
      "ctual": 8598,
      "streets": 8599,
      "responsables": 8600,
      "While": 8601,
      "computers": 8602,
      "collier": 8603,
      "tiendra": 8604,
      "advise": 8605,
      "construire": 8606,
      "kidn": 8607,
      "divorcer": 8608,
      "traduit": 8609,
      "critic": 8610,
      "flation": 8611,
      "champagne": 8612,
      "pronon": 8613,
      "admitted": 8614,
      "smarter": 8615,
      "gratuitement": 8616,
      "origine": 8617,
      "miel": 8618,
      "criminal": 8619,
      "Fumer": 8620,
      "professional": 8621,
      "couverture": 8622,
      "spite": 8623,
      "Almost": 8624,
      "leader": 8625,
      "cott": 8626,
      "ustrie": 8627,
      "u00e9terminer": 8628,
      "informer": 8629,
      "Juste": 8630,
      "robbed": 8631,
      "related": 8632,
      "passionn": 8633,
      "u00fbtera": 8634,
      "profondeur": 8635,
      "entirely": 8636,
      "Without": 8637,
      "grenier": 8638,
      "dawn": 8639,
      "repeat": 8640,
      "classique": 8641,
      "debt": 8642,
      "noisy": 8643,
      "accorder": 8644,
      "accueill": 8645,
      "enveloppe": 8646,
      "departure": 8647,
      "pelouse": 8648,
      "inspiration": 8649,
      "sacrifi": 8650,
      "published": 8651,
      "Halloween": 8652,
      "autorit": 8653,
      "Eat": 8654,
      "Gre": 8655,
      "Hand": 8656,
      "Luck": 8657,
      "Money": 8658,
      "Rentre": 8659,
      "Spain": 8660,
      "eth": 8661,
      "fiez": 8662,
      "ga": 8663,
      "lisez": 8664,
      "mped": 8665,
      "oso": 8666,
      "pping": 8667,
      "rush": 8668,
      "rounded": 8669,
      "wished": 8670,
      "wounded": 8671,
      "outr": 8672,
      "retenu": 8673,
      "reprises": 8674,
      "research": 8675,
      "reasons": 8676,
      "u00e9penses": 8677,
      "err": 8678,
      "levez": 8679,
      "omm": 8680,
      "degr": 8681,
      "deviens": 8682,
      "atter": 8683,
      "tool": 8684,
      "Jette": 8685,
      "ceiling": 8686,
      "itali": 8687,
      "estre": 8688,
      "lawn": 8689,
      "chief": 8690,
      "chaises": 8691,
      "thetic": 8692,
      "uncomfortable": 8693,
      "tub": 8694,
      "practic": 8695,
      "below": 8696,
      "rican": 8697,
      "stances": 8698,
      "ays": 8699,
      "parcourir": 8700,
      "u00e9tition": 8701,
      "contrain": 8702,
      "consult": 8703,
      "urity": 8704,
      "aghet": 8705,
      "abst": 8706,
      "tif": 8707,
      "duis": 8708,
      "tery": 8709,
      "terrain": 8710,
      "hoped": 8711,
      "moto": 8712,
      "provo": 8713,
      "tendit": 8714,
      "uies": 8715,
      "frappe": 8716,
      "surprendre": 8717,
      "surveiller": 8718,
      "u00e9sister": 8719,
      "niques": 8720,
      "folles": 8721,
      "ongles": 8722,
      "useless": 8723,
      "Pourr": 8724,
      "pipe": 8725,
      "u00e9pand": 8726,
      "nerfs": 8727,
      "dentif": 8728,
      "garant": 8729,
      "imb": 8730,
      "differ": 8731,
      "soucier": 8732,
      "Monte": 8733,
      "u2019en": 8734,
      "Assie": 8735,
      "viendrez": 8736,
      "rafra": 8737,
      "ummer": 8738,
      "auront": 8739,
      "sheep": 8740,
      "spaghet": 8741,
      "commences": 8742,
      "promotion": 8743,
      "trouvais": 8744,
      "bougies": 8745,
      "personn": 8746,
      "u00e9pondez": 8747,
      "u00e9rifie": 8748,
      "commentaire": 8749,
      "sensitive": 8750,
      "pyjam": 8751,
      "dorment": 8752,
      "attentif": 8753,
      "products": 8754,
      "rub": 8755,
      "langage": 8756,
      "battle": 8757,
      "bataille": 8758,
      "intersection": 8759,
      "grosses": 8760,
      "glance": 8761,
      "camper": 8762,
      "Inde": 8763,
      "utilit": 8764,
      "security": 8765,
      "u00e9sents": 8766,
      "u00e9rob": 8767,
      "breaking": 8768,
      "endroits": 8769,
      "phil": 8770,
      "secondes": 8771,
      "translation": 8772,
      "settled": 8773,
      "burning": 8774,
      "deny": 8775,
      "warmer": 8776,
      "ential": 8777,
      "arian": 8778,
      "experiment": 8779,
      "u00e9liore": 8780,
      "bloom": 8781,
      "confess": 8782,
      "milliers": 8783,
      "danced": 8784,
      "chanteuse": 8785,
      "shirts": 8786,
      "sweat": 8787,
      "onnement": 8788,
      "ancient": 8789,
      "tallest": 8790,
      "thanks": 8791,
      "purse": 8792,
      "flew": 8793,
      "screw": 8794,
      "enemies": 8795,
      "augmenter": 8796,
      "verrouiller": 8797,
      "Anyone": 8798,
      "agrees": 8799,
      "hammer": 8800,
      "powerful": 8801,
      "bothering": 8802,
      "arguing": 8803,
      "appuyer": 8804,
      "crisis": 8805,
      "simply": 8806,
      "optimistic": 8807,
      "serrure": 8808,
      "adulte": 8809,
      "recognized": 8810,
      "informed": 8811,
      "brillant": 8812,
      "attirante": 8813,
      "conclusions": 8814,
      "Promets": 8815,
      "square": 8816,
      "u00e8terais": 8817,
      "u00e9journer": 8818,
      "embauch": 8819,
      "statue": 8820,
      "ghosts": 8821,
      "bullet": 8822,
      "hesitate": 8823,
      "scene": 8824,
      "u00e9tonation": 8825,
      "alcohol": 8826,
      "Salut": 8827,
      "rugby": 8828,
      "alphabet": 8829,
      "disgus": 8830,
      "industry": 8831,
      "fourchette": 8832,
      "marchandises": 8833,
      "mystery": 8834,
      "preparing": 8835,
      "Smoking": 8836,
      "reprocher": 8837,
      "mosqui": 8838,
      "Netto": 8839,
      "Assieds": 8840,
      "..": 8841,
      "80": 8842,
      "Actu": 8843,
      "Avons": 8844,
      "Fo": 8845,
      "Hon": 8846,
      "Pars": 8847,
      "Vi": 8848,
      "bage": 8849,
      "bound": 8850,
      "boite": 8851,
      "cout": 8852,
      "ckey": 8853,
      "cago": 8854,
      "fits": 8855,
      "iest": 8856,
      "mouse": 8857,
      "maig": 8858,
      "mploy": 8859,
      "nai": 8860,
      "nana": 8861,
      "oled": 8862,
      "pue": 8863,
      "pitch": 8864,
      "ptique": 8865,
      "ration": 8866,
      "ralent": 8867,
      "san": 8868,
      "sink": 8869,
      "wave": 8870,
      "zes": 8871,
      "u00eale": 8872,
      "ouest": 8873,
      "ouge": 8874,
      "remon": 8875,
      "reck": 8876,
      "reprendre": 8877,
      "remains": 8878,
      "reproche": 8879,
      "essu": 8880,
      "enr": 8881,
      "ency": 8882,
      "enlev": 8883,
      "online": 8884,
      "u00e9i": 8885,
      "u00e9voir": 8886,
      "isions": 8887,
      "indis": 8888,
      "intime": 8889,
      "incorrect": 8890,
      "inclin": 8891,
      "insect": 8892,
      "assi": 8893,
      "department": 8894,
      "nette": 8895,
      "arily": 8896,
      "sees": 8897,
      "secou": 8898,
      "meters": 8899,
      "lade": 8900,
      "aube": 8901,
      "unfair": 8902,
      "sud": 8903,
      "stun": 8904,
      "parts": 8905,
      "outils": 8906,
      "conte": 8907,
      "apons": 8908,
      "plong": 8909,
      "compromis": 8910,
      "acqui": 8911,
      "resist": 8912,
      "ressembles": 8913,
      "wasted": 8914,
      "weapons": 8915,
      "rots": 8916,
      "poet": 8917,
      "u00e7ois": 8918,
      "soins": 8919,
      "hidden": 8920,
      "fel": 8921,
      "expos": 8922,
      "Italy": 8923,
      "vidu": 8924,
      "plac": 8925,
      "mini": 8926,
      "craw": 8927,
      "imper": 8928,
      "obser": 8929,
      "soucis": 8930,
      "lugg": 8931,
      "reads": 8932,
      "u00e9lai": 8933,
      "litt": 8934,
      "parent": 8935,
      "franchement": 8936,
      "malgr": 8937,
      "sentent": 8938,
      "selfie": 8939,
      "selfish": 8940,
      "u00e9fen": 8941,
      "essayons": 8942,
      "spy": 8943,
      "industrie": 8944,
      "version": 8945,
      "rouille": 8946,
      "claim": 8947,
      "wherever": 8948,
      "annonc": 8949,
      "straw": 8950,
      "voyait": 8951,
      "crev": 8952,
      "surprising": 8953,
      "trouverai": 8954,
      "trick": 8955,
      "gery": 8956,
      "consequ": 8957,
      "rainy": 8958,
      "opening": 8959,
      "starts": 8960,
      "skate": 8961,
      "syn": 8962,
      "confiant": 8963,
      "touristes": 8964,
      "suspic": 8965,
      "jud": 8966,
      "boutique": 8967,
      "virus": 8968,
      "banane": 8969,
      "fourr": 8970,
      "u00e9sitez": 8971,
      "logue": 8972,
      "sacr": 8973,
      "entrance": 8974,
      "enseignants": 8975,
      "approcher": 8976,
      "u00e9sorient": 8977,
      "imagined": 8978,
      "grown": 8979,
      "recei": 8980,
      "daughters": 8981,
      "suitcases": 8982,
      "frigo": 8983,
      "avert": 8984,
      "engager": 8985,
      "devenues": 8986,
      "organized": 8987,
      "wheel": 8988,
      "hautement": 8989,
      "sells": 8990,
      "excitant": 8991,
      "u00e9vitable": 8992,
      "welve": 8993,
      "slee": 8994,
      "u00e9licit": 8995,
      "risks": 8996,
      "apologized": 8997,
      "delighted": 8998,
      "pisto": 8999,
      "aigner": 9000,
      "paintings": 9001,
      "beyond": 9002,
      "increase": 9003,
      "required": 9004,
      "bowl": 9005,
      "bowling": 9006,
      "loudly": 9007,
      "voisinage": 9008,
      "extraordinaire": 9009,
      "scientifiques": 9010,
      "fantastic": 9011,
      "exagger": 9012,
      "ruined": 9013,
      "jumeaux": 9014,
      "ponctuel": 9015,
      "Descendez": 9016,
      "Asseyez": 9017,
      "abeille": 9018,
      "relieved": 9019,
      "drugs": 9020,
      "communication": 9021,
      "collecting": 9022,
      "cambrio": 9023,
      "Chicago": 9024,
      "u00e9hicule": 9025,
      "USA": 9026,
      "pharmac": 9027,
      "u00e9vanou": 9028,
      "enfuir": 9029,
      "douloureux": 9030,
      "automobile": 9031,
      "Frankly": 9032,
      "tatouage": 9033,
      "sarcas": 9034,
      "luggage": 9035,
      "11": 9036,
      "40": 9037,
      "But": 9038,
      "Bible": 9039,
      "Father": 9040,
      "Mons": 9041,
      "Mont": 9042,
      "Olymp": 9043,
      "Soud": 9044,
      "Soyons": 9045,
      "Vis": 9046,
      "Women": 9047,
      "bav": 9048,
      "citi": 9049,
      "equal": 9050,
      "fout": 9051,
      "flies": 9052,
      "flash": 9053,
      "gil": 9054,
      "gno": 9055,
      "glo": 9056,
      "gir": 9057,
      "hens": 9058,
      "imes": 9059,
      "murs": 9060,
      "phe": 9061,
      "piti": 9062,
      "ril": 9063,
      "saurait": 9064,
      "twin": 9065,
      "vy": 9066,
      "vage": 9067,
      "rev": 9068,
      "remem": 9069,
      "u00e9en": 9070,
      "u00e9pe": 9071,
      "u00e9fait": 9072,
      "u00e9pense": 9073,
      "u00e9gar": 9074,
      "u00e9pendant": 9075,
      "u00e9bat": 9076,
      "u00e9voit": 9077,
      "u00e9occupe": 9078,
      "anony": 9079,
      "asy": 9080,
      "dettes": 9081,
      "devenait": 9082,
      "quart": 9083,
      "atis": 9084,
      "atri": 9085,
      "attrape": 9086,
      "topic": 9087,
      "quement": 9088,
      "lacer": 9089,
      "trouvez": 9090,
      "unconscious": 9091,
      "tured": 9092,
      "pray": 9093,
      "parten": 9094,
      "rendrait": 9095,
      "apprend": 9096,
      "sip": 9097,
      "sier": 9098,
      "abol": 9099,
      "aces": 9100,
      "poursuivre": 9101,
      "poursuivi": 9102,
      "weapon": 9103,
      "donnes": 9104,
      "potent": 9105,
      "termes": 9106,
      "iras": 9107,
      "coch": 9108,
      "coach": 9109,
      "descend": 9110,
      "moquer": 9111,
      "provis": 9112,
      "couvre": 9113,
      "boots": 9114,
      "vier": 9115,
      "victo": 9116,
      "okay": 9117,
      "Celle": 9118,
      "dissim": 9119,
      "disturb": 9120,
      "bluff": 9121,
      "u00e9ciez": 9122,
      "u00e9clen": 9123,
      "granted": 9124,
      "preniez": 9125,
      "aution": 9126,
      "crie": 9127,
      "impul": 9128,
      "hyp": 9129,
      "carpet": 9130,
      "carrots": 9131,
      "besoins": 9132,
      "comptes": 9133,
      "parlerai": 9134,
      "iff": 9135,
      "musicien": 9136,
      "muscles": 9137,
      "u00e9lange": 9138,
      "attendit": 9139,
      "pouvaient": 9140,
      "malheureuse": 9141,
      "malchanceux": 9142,
      "passent": 9143,
      "autrement": 9144,
      "jouais": 9145,
      "tenta": 9146,
      "berg": 9147,
      "offended": 9148,
      "ouverts": 9149,
      "personnellement": 9150,
      "privac": 9151,
      "u00e9cies": 9152,
      "Permettez": 9153,
      "closet": 9154,
      "annonce": 9155,
      "partirai": 9156,
      "nuits": 9157,
      "putting": 9158,
      "u00e9trin": 9159,
      "u00e9truis": 9160,
      "colors": 9161,
      "earn": 9162,
      "volcan": 9163,
      "pensiez": 9164,
      "u00eeneur": 9165,
      "empire": 9166,
      "sleeps": 9167,
      "voisine": 9168,
      "crimes": 9169,
      "humain": 9170,
      "saura": 9171,
      "keeping": 9172,
      "juin": 9173,
      "vaccin": 9174,
      "travailleurs": 9175,
      "u00e9decine": 9176,
      "satisfaire": 9177,
      "baggage": 9178,
      "talents": 9179,
      "continuait": 9180,
      "bargain": 9181,
      "fourni": 9182,
      "u00e9site": 9183,
      "visiting": 9184,
      "Angle": 9185,
      "normale": 9186,
      "commencez": 9187,
      "intelligence": 9188,
      "spoon": 9189,
      "drogu": 9190,
      "stream": 9191,
      "commander": 9192,
      "individu": 9193,
      "miennes": 9194,
      "Love": 9195,
      "u00e9dule": 9196,
      "politici": 9197,
      "issors": 9198,
      "fridge": 9199,
      "manquez": 9200,
      "u00e9cevoir": 9201,
      "humor": 9202,
      "tiendrai": 9203,
      "tiennent": 9204,
      "punish": 9205,
      "punctual": 9206,
      "tranquilles": 9207,
      "u00e9reuse": 9208,
      "descendit": 9209,
      "flex": 9210,
      "mignons": 9211,
      "nationale": 9212,
      "recover": 9213,
      "u00e9quences": 9214,
      "bills": 9215,
      "u00e9cisions": 9216,
      "u00e9phonerai": 9217,
      "freed": 9218,
      "maths": 9219,
      "screen": 9220,
      "u00eaches": 9221,
      "meurent": 9222,
      "u00e2teaux": 9223,
      "scissors": 9224,
      "Anybody": 9225,
      "morceaux": 9226,
      "procurer": 9227,
      "porc": 9228,
      "cities": 9229,
      "expliqua": 9230,
      "frozen": 9231,
      "absente": 9232,
      "Although": 9233,
      "generous": 9234,
      "Jouons": 9235,
      "chinoise": 9236,
      "candidature": 9237,
      "moustiques": 9238,
      "consacrer": 9239,
      "ambitious": 9240,
      "bananas": 9241,
      "toys": 9242,
      "Germany": 9243,
      "Dix": 9244,
      "snakes": 9245,
      "drowning": 9246,
      "battery": 9247,
      "envelope": 9248,
      "victoire": 9249,
      "adolescent": 9250,
      "requis": 9251,
      "salad": 9252,
      "phoned": 9253,
      "Africa": 9254,
      "commercial": 9255,
      "Entrez": 9256,
      "Rendez": 9257,
      "maigre": 9258,
      "estival": 9259,
      "gaspiller": 9260,
      "Oublie": 9261,
      "Oubliez": 9262,
[...]
